<unk>	0
<s>	0
</s>	0
[pad]	0
[unk]	0
[cls]	0
[sep]	0
[mask]	0
▁이	-0
▁1	-1
으로	-2
에서	-3
▁있	-4
▁2	-5
▁그	-6
▁대	-7
▁사	-8
이다	-9
었다	-10
▁수	-11
▁지	-12
▁시	-13
▁가	-14
▁전	-15
하였	-16
▁기	-17
▁아	-18
▁있다	-19
▁19	-20
▁20	-21
하는	-22
했다	-23
▁일	-24
▁한	-25
▁주	-26
▁제	-27
▁다	-28
▁정	-29
▁중	-30
▁것	-31
▁하	-32
▁자	-33
하였다	-34
▁공	-35
▁인	-36
되었다	-37
▁위	-38
▁경	-39
하고	-40
▁유	-41
▁보	-42
▁등	-43
▁부	-44
하여	-45
▁조	-46
▁3	-47
으며	-48
▁나	-49
▁동	-50
▁모	-51
▁연	-52
에는	-53
▁선	-54
▁의	-55
▁미	-56
▁발	-57
▁오	-58
▁소	-59
▁마	-60
한다	-61
▁영	-62
▁고	-63
▁구	-64
▁개	-65
▁도	-66
▁세	-67
▁상	-68
▁비	-69
▁200	-70
▁국	-71
▁서	-72
▁때	-73
▁스	-74
▁후	-75
▁여	-76
▁성	-77
▁있는	-78
▁해	-79
▁관	-80
▁신	-81
▁201	-82
▁대한	-83
▁프	-84
부터	-85
▁4	-86
▁방	-87
되어	-88
지만	-89
▁만	-90
▁또	-91
▁않	-92
▁5	-93
▁현	-94
▁교	-95
▁무	-96
까지	-97
에게	-98
▁남	-99
▁"	-100
▁장	-101
▁바	-102
▁통	-103
▁역	-104
▁내	-105
▁문	-106
적인	-107
▁거	-108
된다	-109
▁결	-110
이라	-111
적으로	-112
▁포	-113
▁우	-114
▁불	-115
▁같	-116
▁원	-117
▁최	-118
▁진	-119
▁출	-120
▁강	-121
국의	-122
▁어	-123
▁생	-124
▁작	-125
▁당	-126
학교	-127
▁노	-128
▁반	-129
▁계	-130
▁알	-131
▁6	-132
▁따	-133
▁말	-134
▁받	-135
▁10	-136
에서는	-137
면서	-138
▁없	-139
되었	-140
▁파	-141
▁사용	-142
▁실	-143
년에	-144
들이	-145
▁'	-146
▁분	-147
▁두	-148
들은	-149
하기	-150
▁일본	-151
▁f	-152
▁명	-153
▁이후	-154
하게	-155
▁함	-156
▁한다	-157
▁리	-158
▁7	-159
▁단	-160
▁설	-161
▁8	-162
▁예	-163
▁차	-164
▁재	-165
▁에	-166
▁안	-167
▁배	-168
으나	-169
았다	-170
▁특	-171
▁독	-172
▁군	-173
▁요	-174
▁종	-175
▁많	-176
▁되었다	-177
▁초	-178
▁그는	-179
▁로	-180
▁데	-181
00	-182
▁9	-183
▁활	-184
▁199	-185
▁대한민	-186
이며	-187
▁추	-188
리아	-189
▁라	-190
▁같은	-191
▁그리	-192
▁입	-193
▁운	-194
▁매	-195
▁형	-196
▁타	-197
▁태	-198
▁행	-199
▁18	-200
▁건	-201
는데	-202
▁때문	-203
▁감	-204
▁김	-205
▁위해	-206
▁카	-207
▁더	-208
들어	-209
▁양	-210
▁산	-211
▁적	-212
▁평	-213
▁과	-214
▁시작	-215
▁왕	-216
들의	-217
or	-218
기도	-219
▁그러	-220
스트	-221
라는	-222
▁열	-223
▁북	-224
▁승	-225
▁참	-226
▁12	-227
▁번	-228
▁지역	-229
▁다음	-230
▁및	-231
▁되	-232
▁프로	-233
들을	-234
▁본	-235
▁올	-236
▁음	-237
▁따라	-238
▁크	-239
▁미국	-240
▁각	-241
▁또한	-242
▁회	-243
주의	-244
▁화	-245
▁피	-246
▁호	-247
▁사람	-248
하며	-249
레이	-250
la	-251
▁변	-252
▁속	-253
▁함께	-254
▁다른	-255
▁베	-256
▁임	-257
▁외	-258
▁코	-259
▁표	-260
▁물	-261
▁처	-262
▁목	-263
▁경우	-264
라고	-265
이나	-266
▁총	-267
▁현재	-268
▁s	-269
▁달	-270
▁11	-271
▁위치	-272
▁자신	-273
▁그의	-274
▁이름	-275
하지	-276
▁민	-277
▁약	-278
▁그러나	-279
▁직	-280
▁a	-281
▁새	-282
▁학	-283
▁때문에	-284
시아	-285
▁세계	-286
▁선수	-287
▁당시	-288
하다	-289
▁집	-290
에도	-291
▁간	-292
▁가장	-293
기를	-294
▁기록	-295
기에	-296
▁항	-297
▁하나	-298
▁저	-299
▁게	-300
▁점	-301
▁사이	-302
리는	-303
▁체	-304
▁것을	-305
▁했다	-306
▁198	-307
mu	-308
▁뒤	-309
▁된다	-310
▁한국	-311
스는	-312
▁있으며	-313
되는	-314
스의	-315
▁조선	-316
▁존	-317
▁for	-318
▁있었다	-319
▁m	-320
▁것이	-321
▁드	-322
▁t	-323
▁확	-324
였다	-325
▁c	-326
▁의해	-327
지는	-328
▁메	-329
mula	-330
이라고	-331
▁못	-332
▁것으로	-333
▁국가	-334
▁formula	-335
▁천	-336
▁박	-337
▁복	-338
▁그리고	-339
▁하는	-340
일에	-341
▁활동	-342
▁또는	-343
▁투	-344
▁철	-345
▁필	-346
▁광	-347
▁토	-348
▁축	-349
▁법	-350
▁통해	-351
▁프랑	-352
▁영화	-353
졌다	-354
▁청	-355
▁합	-356
하였고	-357
되고	-358
리를	-359
▁많은	-360
▁삼	-361
▁근	-362
▁야	-363
▁브	-364
▁편	-365
▁레	-366
▁15	-367
▁창	-368
▁것이다	-369
▁판	-370
▁금	-371
▁들어	-372
▁증	-373
▁살	-374
이라는	-375
▁돌	-376
했고	-377
▁아니	-378
▁첫	-379
▁높	-380
▁16	-381
▁디	-382
▁언	-383
▁다시	-384
▁치	-385
▁가지	-386
▁대해	-387
▁쓰	-388
▁은	-389
▁197	-390
하면서	-391
▁있었	-392
▁버	-393
사를	-394
▁여러	-395
는다	-396
▁황	-397
▁경기	-398
▁대한민국	-399
로서	-400
▁k	-401
▁할	-402
▁심	-403
▁충	-404
▁대한민국의	-405
이었다	-406
이는	-407
랜드	-408
▁독일	-409
▁완	-410
▁플	-411
상을	-412
대로	-413
이고	-414
▁하였다	-415
▁17	-416
▁서울	-417
▁도시	-418
▁큰	-419
▁병	-420
▁포함	-421
▁애	-422
▁죽	-423
▁네	-424
되었고	-425
▁백	-426
▁196	-427
▁i	-428
▁팀	-429
보다	-430
▁트	-431
▁모두	-432
▁패	-433
▁d	-434
지를	-435
▁194	-436
위를	-437
개의	-438
▁페	-439
▁순	-440
▁b	-441
장을	-442
성을	-443
▁이루	-444
▁연구	-445
▁사회	-446
▁권	-447
▁모든	-448
▁용	-449
▁클	-450
▁채	-451
er	-452
▁취	-453
▁등의	-454
▁루	-455
▁친	-456
▁처음	-457
등학교	-458
대의	-459
▁이용	-460
km	-461
▁전쟁	-462
▁시즌	-463
▁알려	-464
▁히	-465
▁규	-466
자가	-467
이었	-468
니아	-469
▁있어	-470
▁일부	-471
▁정부	-472
년에는	-473
력을	-474
▁끝	-475
년부터	-476
▁대표	-477
리에	-478
▁존재	-479
▁14	-480
회의	-481
▁손	-482
도의	-483
▁중국	-484
▁정치	-485
▁p	-486
▁식	-487
▁것은	-488
▁중심	-489
▁아이	-490
부분	-491
▁인구	-492
도로	-493
▁구성	-494
▁위한	-495
▁즉	-496
▁문제	-497
▁영국	-498
▁허	-499
거나	-500
했으며	-501
▁프랑스	-502
▁나타	-503
기의	-504
▁이어	-505
▁이상	-506
이자	-507
▁일반	-508
하였으며	-509
▁자신의	-510
▁테	-511
▁이러	-512
로는	-513
▁맡	-514
▁축구	-515
▁이러한	-516
▁13	-517
▁맞	-518
▁러	-519
기는	-520
라이	-521
▁섬	-522
▁갖	-523
▁별	-524
▁가능	-525
나라	-526
▁면	-527
▁온	-528
▁작품	-529
▁개발	-530
▁걸	-531
다는	-532
▁논	-533
▁되어	-534
▁길	-535
▁발표	-536
▁리그	-537
서는	-538
▁앞	-539
▁곳	-540
on	-541
▁195	-542
▁새로	-543
▁하지만	-544
▁다음과	-545
▁접	-546
▁주장	-547
▁뉴	-548
▁발견	-549
하면	-550
▁동안	-551
▁등을	-552
▁게임	-553
▁뜻	-554
▁환	-555
다고	-556
로부터	-557
▁방송	-558
년대	-559
기가	-560
▁월	-561
자의	-562
▁준	-563
000	-564
▁이는	-565
사가	-566
되었으며	-567
시키	-568
통령	-569
도록	-570
▁밀	-571
리가	-572
▁캐	-573
▁하고	-574
▁농	-575
▁감독	-576
▁위치한	-577
▁대부분	-578
들과	-579
▁이를	-580
쪽으로	-581
▁공격	-582
in	-583
▁볼	-584
▁등이	-585
군의	-586
스를	-587
▁잘	-588
▁폭	-589
▁지방	-590
에서도	-591
▁번째	-592
▁전투	-593
▁국제	-594
▁협	-595
▁밝	-596
▁193	-597
시에	-598
▁향	-599
▁2010	-600
▁음악	-601
났다	-602
▁담	-603
어진	-604
▁얻	-605
▁육	-606
월에	-607
▁귀	-608
▁영향	-609
위원	-610
정을	-611
란드	-612
▁사건	-613
▁n	-614
▁앨	-615
자를	-616
▁대학	-617
명의	-618
▁대통령	-619
▁검	-620
▁미국의	-621
▁문화	-622
도를	-623
▁최초	-624
▁-	-625
자는	-626
했던	-627
▁2008	-628
도는	-629
▁의미	-630
▁이에	-631
▁제작	-632
▁설립	-633
년까지	-634
성이	-635
▁극	-636
와의	-637
▁막	-638
▁우승	-639
인의	-640
▁u	-641
들에게	-642
스가	-643
▁30	-644
리카	-645
▁날	-646
▁프로그	-647
세기	-648
대를	-649
▁설치	-650
▁g	-651
▁관계	-652
자로	-653
리의	-654
▁그녀	-655
▁r	-656
▁발생	-657
르는	-658
▁만들어	-659
▁결과	-660
▁같이	-661
▁진행	-662
▁생각	-663
이트	-664
▁l	-665
▁배우	-666
▁일어	-667
▁특히	-668
리스	-669
▁된	-670
▁2007	-671
▁e	-672
▁홍	-673
▁러시아	-674
므로	-675
▁줄	-676
▁발매	-677
▁독립	-678
▁와	-679
▁2009	-680
▁주로	-681
▁이것	-682
▁교육	-683
▁유럽	-684
▁역사	-685
▁석	-686
리그	-687
▁책	-688
▁2011	-689
가지	-690
▁192	-691
드는	-692
▁관련	-693
▁사실	-694
▁태어	-695
▁절	-696
▁대회	-697
▁부분	-698
▁키	-699
▁형태	-700
▁받아	-701
▁계속	-702
▁이전	-703
요한	-704
원을	-705
▁인해	-706
렸다	-707
▁시간	-708
▁있고	-709
▁곡	-710
▁새로운	-711
▁효	-712
식을	-713
▁좋	-714
▁침	-715
▁로마	-716
▁사망	-717
▁2012	-718
▁암	-719
▁경제	-720
▁잡	-721
▁다양	-722
▁기술	-723
▁이탈	-724
▁폐	-725
▁h	-726
▁자유	-727
사의	-728
▁갈	-729
▁헤	-730
화국	-731
▁올림	-732
▁등장	-733
▁받았다	-734
▁봉	-735
▁참여	-736
an	-737
▁측	-738
스터	-739
인이	-740
과의	-741
전을	-742
▁수도	-743
▁<	-744
▁데뷔	-745
▁있던	-746
▁질	-747
▁매우	-748
부의	-749
▁일본의	-750
▁중앙	-751
으로서	-752
▁벌	-753
▁상태	-754
▁w	-755
다가	-756
▁프로그램	-757
▁가지고	-758
▁소속	-759
하기도	-760
▁엔	-761
디오	-762
▁성공	-763
▁191	-764
대에	-765
기로	-766
▁블	-767
▁결정	-768
▁커	-769
▁참가	-770
▁아버	-771
▁머	-772
▁구조	-773
▁탄	-774
사는	-775
학자	-776
▁혼	-777
명을	-778
▁이탈리아	-779
▁운영	-780
▁2014	-781
▁2013	-782
에서의	-783
▁글	-784
도가	-785
▁넘	-786
▁누	-787
프트	-788
▁올림픽	-789
▁앨범	-790
▁않았다	-791
▁골	-792
▁몇	-793
▁난	-794
-1	-795
▁아니라	-796
장이	-797
▁돌아	-798
▁급	-799
▁고려	-800
▁타이	-801
▁범	-802
권을	-803
▁한편	-804
부에	-805
▁행정	-806
번째	-807
리즈	-808
▁찾	-809
▁탈	-810
,000	-811
▁들	-812
군은	-813
▁2006	-814
▁조직	-815
▁출신	-816
▁송	-817
▁만들	-818
▁떨	-819
처럼	-820
▁운동	-821
▁최고	-822
해서	-823
▁o	-824
▁결국	-825
▁윤	-826
르크	-827
대학교	-828
▁악	-829
이지	-830
▁않고	-831
ar	-832
▁없다	-833
▁차지	-834
▁25	-835
간의	-836
하자	-837
▁아들	-838
▁100	-839
▁니	-840
왔다	-841
▁많이	-842
했지만	-843
수를	-844
스와	-845
이션	-846
사로	-847
비아	-848
▁없는	-849
되지	-850
▁지정	-851
▁슈	-852
▁싱	-853
▁하여	-854
▁업	-855
선의	-856
▁유명	-857
he	-858
화를	-859
명이	-860
수의	-861
운데	-862
▁터	-863
▁내용	-864
▁계획	-865
▁생산	-866
으로써	-867
장은	-868
▁지원	-869
▁여성	-870
▁방법	-871
▁힘	-872
▁아래	-873
▁이유	-874
▁전체	-875
▁,	-876
▁기준	-877
냈다	-878
▁라이	-879
▁좌	-880
라마	-881
▁빠	-882
▁는	-883
▁둘	-884
지의	-885
▁해당	-886
en	-887
스로	-888
나는	-889
▁2015	-890
▁따르	-891
원의	-892
_1	-893
▁이루어	-894
남도	-895
▁가운데	-896
전에	-897
지가	-898
▁떠	-899
▁케	-900
▁선거	-901
장으로	-902
스템	-903
일부터	-904
▁주요	-905
진다	-906
하였으나	-907
어로	-908
▁폴	-909
▁남아	-910
▁역할	-911
음을	-912
▁컴	-913
▁쿠	-914
▁국민	-915
▁몸	-916
수가	-917
했으나	-918
▁졸	-919
이스	-920
▁21	-921
하려	-922
▁스타	-923
▁인터	-924
▁각각	-925
fa	-926
▁않는다	-927
st	-928
▁제공	-929
▁표현	-930
▁뛰	-931
▁대학교	-932
▁인구는	-933
▁붙	-934
자인	-935
하던	-936
▁모습	-937
였던	-938
▁팔	-939
▁0	-940
리고	-941
▁2005	-942
으로는	-943
▁헌	-944
▁지구	-945
원은	-946
스타	-947
지에	-948
▁스페	-949
가는	-950
▁다양한	-951
▁따라서	-952
스크	-953
▁연결	-954
력이	-955
원이	-956
▁이미	-957
운동	-958
상의	-959
▁마지	-960
▁격	-961
머니	-962
▁이름을	-963
▁거의	-964
▁2016	-965
▁필요	-966
시켰	-967
제로	-968
어를	-969
▁활약	-970
▁공식	-971
제를	-972
으로부터	-973
▁콘	-974
▁인정	-975
▁수상	-976
▁j	-977
▁얼	-978
사에	-979
성의	-980
▁몰	-981
▁높은	-982
at	-983
▁말한다	-984
▁22	-985
인다	-986
▁잠	-987
군이	-988
▁데이	-989
▁알려져	-990
▁정보	-991
적은	-992
▁마지막	-993
▁작은	-994
지고	-995
▁능	-996
인은	-997
▁직접	-998
점을	-999
▁영향을	-1000
▁자연	-1001
인민	-1002
대학	-1003
▁대신	-1004
어는	-1005
수로	-1006
▁공개	-1007
▁월드	-1008
이가	-1009
▁2004	-1010
▁시리즈	-1011
치는	-1012
▁졸업	-1013
▁그리스	-1014
▁2000	-1015
▁24	-1016
▁시스템	-1017
었고	-1018
전에서	-1019
▁되는	-1020
ic	-1021
▁임명	-1022
▁같다	-1023
▁출전	-1024
▁그가	-1025
▁따르면	-1026
▁생활	-1027
▁가리	-1028
선을	-1029
수는	-1030
bs	-1031
대는	-1032
▁진출	-1033
▁경상	-1034
al	-1035
▁열린	-1036
갔다	-1037
▁후에	-1038
▁기능	-1039
▁눈	-1040
▁정도	-1041
▁마이	-1042
▁발전	-1043
▁홈	-1044
▁있는데	-1045
▁보고	-1046
부를	-1047
세의	-1048
지로	-1049
위원회	-1050
▁빌	-1051
▁풍	-1052
▁항공	-1053
위에	-1054
▁이야	-1055
▁크게	-1056
▁출연	-1057
▁않은	-1058
▁23	-1059
▁오스트	-1060
▁정의	-1061
해야	-1062
▁상황	-1063
▁칼	-1064
▁추가	-1065
북도	-1066
대가	-1067
▁비롯	-1068
▁대전	-1069
20	-1070
▁철도	-1071
▁제국	-1072
▁평가	-1073
▁결혼	-1074
▁묘	-1075
인을	-1076
▁레이	-1077
▁그룹	-1078
▁브라	-1079
▁과정	-1080
▁개최	-1081
됐다	-1082
▁민주	-1083
▁나라	-1084
있다	-1085
▁유지	-1086
▁그것	-1087
계를	-1088
▁먹	-1089
▁서로	-1090
▁분류	-1091
부는	-1092
▁쇼	-1093
▁않았	-1094
▁v	-1095
▁중요한	-1096
▁센	-1097
키는	-1098
과는	-1099
▁건설	-1100
▁190	-1101
▁뿐	-1102
역이다	-1103
▁거쳐	-1104
트는	-1105
▁보여	-1106
▁드라마	-1107
▁역시	-1108
▁주의	-1109
▁반대	-1110
원으로	-1111
제가	-1112
▁지금	-1113
▁연합	-1114
▁학교	-1115
문을	-1116
업을	-1117
군을	-1118
▁압	-1119
▁관한	-1120
▁퍼	-1121
우스	-1122
▁이론	-1123
▁요구	-1124
▁변경	-1125
치를	-1126
식으로	-1127
▁건물	-1128
▁아르	-1129
▁일으	-1130
▁상대	-1131
임을	-1132
들에	-1133
제의	-1134
es	-1135
▁핵	-1136
▁낮	-1137
대표	-1138
▁프리	-1139
▁군사	-1140
▁중화	-1141
▁민족	-1142
민주	-1143
▁기본	-1144
대한	-1145
▁가진	-1146
▁노래	-1147
▁관리	-1148
▁플레이	-1149
특별	-1150
성은	-1151
▁이르	-1152
회를	-1153
▁놓	-1154
▁완전	-1155
▁인물	-1156
상이	-1157
문화	-1158
▁26	-1159
역시	-1160
▁동시에	-1161
▁만든	-1162
▁인도	-1163
▁실시	-1164
▁시대	-1165
▁28	-1166
장의	-1167
▁딸	-1168
▁않는	-1169
▁후보	-1170
되면서	-1171
▁엘	-1172
▁2002	-1173
▁교황	-1174
▁녹	-1175
▁시작했다	-1176
일까지	-1177
▁음반	-1178
▁원래	-1179
▁사이에	-1180
른다	-1181
오는	-1182
트로	-1183
it	-1184
▁바이	-1185
▁혹	-1186
▁희	-1187
▁27	-1188
▁울	-1189
드를	-1190
▁공동	-1191
▁응	-1192
▁어떤	-1193
▁싱글	-1194
▁형성	-1195
▁학생	-1196
▁경기도	-1197
▁싸	-1198
▁계약	-1199
▁fc	-1200
▁승강	-1201
▁색	-1202
상으로	-1203
▁넓	-1204
▁이때	-1205
이었던	-1206
드의	-1207
▁운행	-1208
▁느	-1209
정한	-1210
▁부산	-1211
▁의한	-1212
주는	-1213
▁2003	-1214
▁처음으로	-1215
서를	-1216
▁소련	-1217
광역시	-1218
▁되고	-1219
▁아닌	-1220
▁비판	-1221
▁야구	-1222
▁모델	-1223
이의	-1224
체의	-1225
▁긴	-1226
자와	-1227
▁보통	-1228
▁최초의	-1229
▁자동	-1230
▁여기	-1231
트의	-1232
▁태양	-1233
▁현대	-1234
단의	-1235
군에	-1236
▁역할을	-1237
▁겸	-1238
▁2017	-1239
이기도	-1240
▁~	-1241
▁노동	-1242
▁티	-1243
장에	-1244
▁비슷	-1245
▁판매	-1246
인민공	-1247
▁50	-1248
소를	-1249
이를	-1250
▁있을	-1251
▁도입	-1252
트를	-1253
▁이동	-1254
하는데	-1255
드로	-1256
격을	-1257
▁있다고	-1258
▁견	-1259
▁잉	-1260
▁달리	-1261
▁시절	-1262
▁지도	-1263
▁전통	-1264
▁밴	-1265
▁기업	-1266
세는	-1267
▁망	-1268
▁하며	-1269
ou	-1270
▁수행	-1271
무를	-1272
▁지배	-1273
회는	-1274
프리카	-1275
▁휴	-1276
▁연방	-1277
▁특징	-1278
▁특별	-1279
적을	-1280
▁종교	-1281
▁인간	-1282
체를	-1283
▁기원	-1284
▁지나	-1285
▁과학	-1286
▁기간	-1287
▁개인	-1288
▁옮	-1289
리로	-1290
▁명칭	-1291
▁개의	-1292
호를	-1293
중에	-1294
▁초기	-1295
기관	-1296
린다	-1297
리와	-1298
되며	-1299
▁도쿄	-1300
▁훈	-1301
▁컴퓨	-1302
독교	-1303
▁기관	-1304
▁워	-1305
▁마을	-1306
▁퇴	-1307
▁전라	-1308
장에서	-1309
▁궁	-1310
▁지하	-1311
▁엄	-1312
있는	-1313
동안	-1314
▁기존	-1315
▁제외	-1316
▁속하는	-1317
▁모양	-1318
명은	-1319
▁지휘	-1320
▁바로	-1321
▁혁	-1322
▁탑	-1323
화가	-1324
▁어머니	-1325
▁이것은	-1326
스탄	-1327
▁공간	-1328
▁전문	-1329
물을	-1330
▁그래	-1331
▁중심으로	-1332
▁the	-1333
▁국내	-1334
▁이끌	-1335
나다	-1336
▁29	-1337
▁애니	-1338
리오	-1339
▁정책	-1340
10	-1341
시의	-1342
어의	-1343
년의	-1344
▁소설	-1345
명이다	-1346
가와	-1347
▁사랑	-1348
니다	-1349
re	-1350
▁될	-1351
시켰다	-1352
▁위하여	-1353
▁아버지	-1354
▁다이	-1355
동에	-1356
▁콜	-1357
어가	-1358
학과	-1359
혔다	-1360
▁기반	-1361
레스	-1362
▁사업	-1363
하지만	-1364
▁혹은	-1365
▁클럽	-1366
▁슬	-1367
▁부르	-1368
▁그를	-1369
▁서비	-1370
▁경찰	-1371
▁곧	-1372
▁보내	-1373
▁fi	-1374
쪽에	-1375
▁일반적으로	-1376
도에	-1377
▁동일	-1378
▁되었고	-1379
▁주변	-1380
▁유일	-1381
▁과거	-1382
▁역임	-1383
연구	-1384
의를	-1385
▁공연	-1386
▁먼	-1387
마다	-1388
▁컴퓨터	-1389
위로	-1390
▁빈	-1391
시간	-1392
류의	-1393
했는데	-1394
bc	-1395
le	-1396
▁담당	-1397
▁떨어	-1398
▁밖	-1399
▁출시	-1400
제는	-1401
▁기타	-1402
▁2001	-1403
▁받고	-1404
카이	-1405
▁경기에서	-1406
르트	-1407
▁있다는	-1408
사와	-1409
▁비교	-1410
체가	-1411
구의	-1412
.5	-1413
▁벨	-1414
상은	-1415
▁가까	-1416
▁31	-1417
▁뮤	-1418
관은	-1419
▁기독교	-1420
▁받은	-1421
▁배우이다	-1422
▁풀	-1423
▁189	-1424
▁적용	-1425
▁전국	-1426
부가	-1427
쳤다	-1428
호는	-1429
▁이적	-1430
종의	-1431
식은	-1432
▁웨	-1433
시마	-1434
."	-1435
▁받았	-1436
▁찾아	-1437
▁때문이다	-1438
▁기준으로	-1439
인으로	-1440
▁하나이다	-1441
▁착	-1442
단을	-1443
▁가수	-1444
피언	-1445
기와	-1446
▁샤	-1447
▁맥	-1448
▁방향	-1449
스에	-1450
▁활동을	-1451
관을	-1452
조의	-1453
호로	-1454
▁실패	-1455
▁산업	-1456
▁월드컵	-1457
▁분야	-1458
▁흔	-1459
▁1990	-1460
▁없이	-1461
▁선정	-1462
▁탐	-1463
▁푸	-1464
텔레	-1465
단은	-1466
메이션	-1467
동을	-1468
▁통합	-1469
▁우주	-1470
▁획	-1471
▁차량	-1472
▁열차	-1473
▁1,	-1474
멤버	-1475
▁수록	-1476
선이	-1477
▁작곡	-1478
▁넣	-1479
▁두고	-1480
▁숙	-1481
is	-1482
식의	-1483
.1	-1484
▁설명	-1485
50	-1486
▁·	-1487
▁자기	-1488
방송	-1489
▁어느	-1490
▁걸쳐	-1491
선은	-1492
▁환경	-1493
시켜	-1494
하거나	-1495
일에는	-1496
계의	-1497
▁있어서	-1498
▁대부분의	-1499
▁피해	-1500
▁있지만	-1501
▁공화국	-1502
▁그녀는	-1503
세가	-1504
▁개념	-1505
당의	-1506
▁40	-1507
원에	-1508
▁서울특별	-1509
▁충청	-1510
이로	-1511
▁늘	-1512
▁증가	-1513
▁이와	-1514
▁너	-1515
▁x	-1516
▁이런	-1517
▁tv	-1518
▁챔	-1519
▁오늘	-1520
▁최근	-1521
▁등에	-1522
인이다	-1523
적이	-1524
글랜드	-1525
▁뉴욕	-1526
▁자신이	-1527
쪽으로는	-1528
▁여자	-1529
cm	-1530
▁멤버	-1531
▁뛰어	-1532
▁낙	-1533
▁옥	-1534
운드	-1535
▁보호	-1536
과에	-1537
르게	-1538
▁방영	-1539
▁올라	-1540
으면	-1541
정에	-1542
▁선수이다	-1543
-2	-1544
면에	-1545
이드	-1546
▁지지	-1547
▁이상의	-1548
학을	-1549
했다고	-1550
스코	-1551
▁사고	-1552
▁없었다	-1553
▁공립	-1554
▁어린	-1555
▁등으로	-1556
om	-1557
▁더욱	-1558
▁대하여	-1559
▁면적은	-1560
움을	-1561
▁가족	-1562
▁규모	-1563
▁불가	-1564
▁애니메이션	-1565
성과	-1566
크로	-1567
▁하다	-1568
▁태어났다	-1569
▁흐	-1570
식이	-1571
▁기념	-1572
경기	-1573
상에	-1574
▁예정	-1575
▁최초로	-1576
심을	-1577
▁윈	-1578
세를	-1579
▁확인	-1580
▁상당	-1581
리에서	-1582
▁건축	-1583
▁챔피언	-1584
역을	-1585
전은	-1586
▁국가대표	-1587
▁이름은	-1588
성에	-1589
교육	-1590
▁맺	-1591
▁캐나다	-1592
자들은	-1593
겼다	-1594
▁염	-1595
▁있었던	-1596
치가	-1597
▁대체	-1598
▁갑	-1599
ol	-1600
▁물리	-1601
▁스페인	-1602
법을	-1603
되었으나	-1604
▁추정	-1605
킨다	-1606
렇게	-1607
야마	-1608
▁1999	-1609
▁지역에	-1610
▁잉글랜드	-1611
▁점령	-1612
▁최대	-1613
▁내려	-1614
▁데이터	-1615
▁땅	-1616
한다는	-1617
학적	-1618
소가	-1619
비전	-1620
일을	-1621
▁나가	-1622
▁조건	-1623
함으로써	-1624
▁시민	-1625
▁선출	-1626
어서	-1627
시는	-1628
가의	-1629
했을	-1630
▁부족	-1631
▁1998	-1632
▁흑	-1633
▁선택	-1634
리지	-1635
만을	-1636
렀다	-1637
명으로	-1638
▁어려	-1639
▁:	-1640
▁움	-1641
▁획득	-1642
이란	-1643
▁서울특별시	-1644
▁변화	-1645
▁득	-1646
메리카	-1647
널리	-1648
▁이름으로	-1649
▁베이	-1650
▁구간	-1651
▁선언	-1652
▁연속	-1653
구를	-1654
시키는	-1655
만이	-1656
▁fifa	-1657
년간	-1658
▁있게	-1659
am	-1660
▁명령	-1661
▁잃	-1662
et	-1663
회에서	-1664
학의	-1665
▁공산	-1666
▁최종	-1667
▁에너	-1668
▁좋은	-1669
▁예를	-1670
초등학교	-1671
▁현재는	-1672
▁자료	-1673
▁조약	-1674
진을	-1675
▁팬	-1676
정이	-1677
▁1980	-1678
▁선발	-1679
비를	-1680
자들이	-1681
▁연주	-1682
으므로	-1683
▁잔	-1684
▁위원	-1685
▁결승	-1686
▁역은	-1687
내는	-1688
▁고대	-1689
_2	-1690
덜란드	-1691
고등학교	-1692
▁기원전	-1693
▁것이라고	-1694
▁교통	-1695
▁언어	-1696
관이	-1697
▁불구	-1698
소는	-1699
▁이들은	-1700
신을	-1701
▁이듬	-1702
이에	-1703
난다	-1704
▁이유로	-1705
라도	-1706
▁흥	-1707
▁평균	-1708
▁왜	-1709
▁정규	-1710
▁사무	-1711
▁승리	-1712
▁을	-1713
개월	-1714
▁겨	-1715
▁윌	-1716
하도록	-1717
▁텔레	-1718
라의	-1719
체는	-1720
.2	-1721
▁소비	-1722
▁옛	-1723
▁폴란드	-1724
▁보인다	-1725
▁칭	-1726
전의	-1727
▁그들의	-1728
▁덴	-1729
▁거주	-1730
회가	-1731
웠다	-1732
인민공화국	-1733
▁정당	-1734
▁이해	-1735
이지만	-1736
el	-1737
▁동물	-1738
▁조지	-1739
계에	-1740
30	-1741
▁이듬해	-1742
▁네덜란드	-1743
로의	-1744
▁목표	-1745
▁인천	-1746
▁전기	-1747
었으며	-1748
▁시에	-1749
▁솔	-1750
로를	-1751
▁지역의	-1752
▁가문	-1753
▁명의	-1754
지와	-1755
드리	-1756
▁주민	-1757
▁표준	-1758
▁하나로	-1759
▁관할	-1760
▁하나의	-1761
▁지상	-1762
▁초등학교	-1763
정부	-1764
회에	-1765
인데	-1766
▁출판	-1767
▁발달	-1768
▁사용하는	-1769
시대	-1770
▁조사	-1771
▁지정되었다	-1772
▁사상	-1773
하였는데	-1774
월에는	-1775
▁후반	-1776
▁하지	-1777
▁익	-1778
▁전에	-1779
▁실제	-1780
▁대중	-1781
▁전자	-1782
▁구분	-1783
소의	-1784
▁우리	-1785
되기	-1786
▁비해	-1787
▁1997	-1788
▁소유	-1789
▁끌	-1790
단에	-1791
as	-1792
▁덕	-1793
▁모습을	-1794
하의	-1795
치고	-1796
▁아직	-1797
▁페르	-1798
▁아시아	-1799
나무	-1800
▁스포	-1801
▁이곳	-1802
조는	-1803
스에서	-1804
▁펼	-1805
구에	-1806
▁런	-1807
▁불구하고	-1808
▁자치	-1809
▁컨	-1810
▁움직	-1811
▁헌법	-1812
▁깊	-1813
▁영국의	-1814
랐다	-1815
메달	-1816
선에	-1817
▁강화	-1818
▁소프트	-1819
▁휘	-1820
▁메이	-1821
▁그들은	-1822
▁유래	-1823
▁불리	-1824
경을	-1825
전이	-1826
▁징	-1827
▁주는	-1828
ing	-1829
mm	-1830
금을	-1831
▁언론	-1832
▁영토	-1833
직을	-1834
스카	-1835
ac	-1836
트남	-1837
▁거두	-1838
지역	-1839
▁효과	-1840
▁믿	-1841
▁고등학교	-1842
▁정확	-1843
▁말했다	-1844
모토	-1845
단이	-1846
▁오늘날	-1847
▁실험	-1848
▁등과	-1849
월부터	-1850
▁밝혔다	-1851
지지	-1852
▁y	-1853
▁대구	-1854
▁널리	-1855
▁목적으로	-1856
▁1996	-1857
▁그림	-1858
형을	-1859
▁씨	-1860
사카	-1861
▁차례	-1862
부로	-1863
톨릭	-1864
▁제한	-1865
▁예술	-1866
▁개봉	-1867
구는	-1868
▁돈	-1869
문에	-1870
▁국립	-1871
▁통과	-1872
▁영화이다	-1873
▁몽	-1874
▁세워	-1875
드가	-1876
▁회사	-1877
▁포르	-1878
▁분리	-1879
▁갖고	-1880
▁밤	-1881
▁쌍	-1882
트가	-1883
▁단체	-1884
▁사람이	-1885
ion	-1886
▁물질	-1887
▁비행	-1888
▁지속	-1889
일랜드	-1890
▁빛	-1891
철도	-1892
19	-1893
가를	-1894
▁1995	-1895
▁독일의	-1896
▁현재의	-1897
관으로	-1898
레일	-1899
우는	-1900
▁중에	-1901
▁사이의	-1902
▁쓴	-1903
▁언급	-1904
장과	-1905
▁마르	-1906
▁이들	-1907
▁꽃	-1908
스턴	-1909
정의	-1910
▁자주	-1911
아의	-1912
▁은퇴	-1913
▁그런	-1914
점이	-1915
정은	-1916
원에서	-1917
▁위에	-1918
▁것에	-1919
▁전해	-1920
▁바탕	-1921
▁맨	-1922
▁앤	-1923
▁식민	-1924
▁마음	-1925
▁드러	-1926
프로	-1927
▁육군	-1928
부르크	-1929
▁알려진	-1930
▁인터넷	-1931
▁완전히	-1932
▁멸	-1933
▁많다	-1934
▁북한	-1935
▁프랑스의	-1936
일의	-1937
▁브라질	-1938
▁제조	-1939
▁유명한	-1940
▁유사	-1941
▁제품	-1942
▁요청	-1943
▁작가	-1944
안을	-1945
인과	-1946
▁맡았다	-1947
60	-1948
▁오스트리아	-1949
▁방문	-1950
들로	-1951
트리	-1952
▁스스로	-1953
▁바뀌	-1954
골을	-1955
▁포함한	-1956
력은	-1957
▁찬	-1958
▁시설	-1959
나이	-1960
▁쉽	-1961
▁나온	-1962
.0	-1963
os	-1964
▁괴	-1965
당은	-1966
▁못했다	-1967
▁액	-1968
▁이로	-1969
▁헬	-1970
▁이사	-1971
▁여객	-1972
르고	-1973
▁국가대표팀	-1974
국은	-1975
▁웹	-1976
도와	-1977
▁가톨릭	-1978
▁파괴	-1979
▁그대로	-1980
▁여겨	-1981
산을	-1982
nd	-1983
▁깨	-1984
위의	-1985
▁배치	-1986
지에서	-1987
▁정도로	-1988
▁추진	-1989
▁연기	-1990
▁188	-1991
-0	-1992
▁경험	-1993
지게	-1994
위가	-1995
구가	-1996
되기도	-1997
위는	-1998
주를	-1999
▁오른	-2000
▁우승을	-2001
▁통일	-2002
▁외국	-2003
▁작업	-2004
▁법률	-2005
▁1994	-2006
▁강력	-2007
▁때까지	-2008
▁반응	-2009
▁경우가	-2010
었던	-2011
▁경쟁	-2012
교의	-2013
▁만나	-2014
▁마찬	-2015
▁사람들이	-2016
▁나오	-2017
베르	-2018
▁오래	-2019
▁있으나	-2020
▁않아	-2021
▁마찬가지	-2022
군과	-2023
▁중요	-2024
▁수준	-2025
▁집합	-2026
▁비롯한	-2027
▁되었	-2028
▁소재	-2029
▁있도록	-2030
▁입단	-2031
시코	-2032
▁프로젝	-2033
스테	-2034
▁일종	-2035
로가	-2036
▁분석	-2037
▁일제	-2038
▁이외	-2039
민주주의	-2040
감을	-2041
▁것이었다	-2042
▁밝혀	-2043
▁주인	-2044
▁일어나	-2045
▁1970	-2046
릭터	-2047
12	-2048
▁핀	-2049
들도	-2050
▁부여	-2051
받았다	-2052
▁복귀	-2053
▁목록	-2054
▁먼저	-2055
▁멀	-2056
▁나머	-2057
없이	-2058
▁관측	-2059
▁해석	-2060
▁설계	-2061
물의	-2062
▁가르	-2063
▁확장	-2064
▁그녀의	-2065
▁홀	-2066
▁칸	-2067
니는	-2068
▁]	-2069
▁들어가	-2070
▁습	-2071
아가	-2072
▁크리스	-2073
▁존재한다	-2074
▁자리	-2075
베이	-2076
▁패배	-2077
▁스웨	-2078
ed	-2079
▁때는	-2080
량이	-2081
▁결성	-2082
▁사라	-2083
▁성장	-2084
▁가능하다	-2085
스티	-2086
▁요시	-2087
▁아프리카	-2088
르의	-2089
국이	-2090
▁주도	-2091
▁불리는	-2092
기술	-2093
▁알렉	-2094
▁광주	-2095
▁기초	-2096
▁정신	-2097
하다가	-2098
시를	-2099
▁구성되어	-2100
▁초대	-2101
▁칠	-2102
▁비슷한	-2103
▁제국의	-2104
스토	-2105
▁동맹	-2106
▁근처	-2107
▁성립	-2108
▁텔레비전	-2109
▁남자	-2110
이어	-2111
▁남부	-2112
규모	-2113
▁폐지	-2114
프는	-2115
▁잇	-2116
고를	-2117
▁1992	-2118
▁캐릭터	-2119
od	-2120
▁베트남	-2121
웨어	-2122
▁반란	-2123
▁아마	-2124
▁국회의	-2125
▁시의	-2126
▁대해서	-2127
▁위해서	-2128
40	-2129
사에서	-2130
화국의	-2131
▁kbs	-2132
▁짧	-2133
▁가져	-2134
▁떨어진	-2135
수한	-2136
▁바꾸	-2137
거리	-2138
관의	-2139
이기	-2140
많은	-2141
▁의하여	-2142
▁의하면	-2143
▁60	-2144
▁여기서	-2145
▁개혁	-2146
▁런던	-2147
il	-2148
▁도착	-2149
▁스웨덴	-2150
자리	-2151
▁세포	-2152
▁해결	-2153
크는	-2154
▁발행	-2155
▁단순	-2156
▁경영	-2157
▁1960	-2158
▁선수로	-2159
▁십	-2160
▁of	-2161
▁영어	-2162
성으로	-2163
▁과정에서	-2164
▁거부	-2165
▁크로	-2166
▁자동차	-2167
카와	-2168
▁대표적인	-2169
▁북쪽	-2170
▁품	-2171
▁시작하였다	-2172
▁타이틀	-2173
했다는	-2174
▁촉	-2175
자에	-2176
형의	-2177
▁접근	-2178
▁를	-2179
▁사용한다	-2180
▁궤	-2181
▁않다	-2182
▁인민	-2183
량을	-2184
크의	-2185
▁필리	-2186
▁스포츠	-2187
▁파견	-2188
▁황제	-2189
▁작용	-2190
▁이루어진	-2191
▁남쪽	-2192
▁보다	-2193
▁친일	-2194
▁하이	-2195
행을	-2196
라스	-2197
▁노르	-2198
▁아무	-2199
▁수많은	-2200
▁만에	-2201
▁수용	-2202
▁알고	-2203
졌고	-2204
▁중에서	-2205
▁몬	-2206
▁스위	-2207
조를	-2208
ec	-2209
중학교	-2210
함을	-2211
버스	-2212
▁술	-2213
▁여름	-2214
어나	-2215
tv	-2216
▁등록	-2217
왕의	-2218
▁훈련	-2219
레일리아	-2220
량은	-2221
▁70	-2222
▁특정	-2223
간다	-2224
▁겪	-2225
15	-2226
▁것과	-2227
▁결합	-2228
화의	-2229
▁도시로	-2230
스키	-2231
▁친구	-2232
▁놀	-2233
▁다르	-2234
자이다	-2235
▁승강장	-2236
▁공항	-2237
▁강원	-2238
▁제주	-2239
대와	-2240
▁일을	-2241
▁ue	-2242
▁삼성	-2243
▁서식	-2244
▁1991	-2245
▁1993	-2246
▁임시	-2247
▁조각	-2248
한다고	-2249
▁기여	-2250
▁도로	-2251
▁행동	-2252
▁교수	-2253
▁지냈다	-2254
▁체결	-2255
▁근거	-2256
▁부정	-2257
사업	-2258
▁계열	-2259
▁형태로	-2260
▁밴드	-2261
▁제시	-2262
만의	-2263
점으로	-2264
▁지역에서	-2265
멕시코	-2266
▁상호	-2267
▁윈도	-2268
권의	-2269
면을	-2270
▁uefa	-2271
▁끝에	-2272
▁상대로	-2273
▁시행	-2274
▁외교	-2275
▁유전	-2276
▁흡	-2277
부에서	-2278
▁있기	-2279
▁슈퍼	-2280
시가	-2281
부와	-2282
속도로	-2283
▁in	-2284
▁한국의	-2285
▁디자인	-2286
▁이렇게	-2287
▁스테	-2288
ow	-2289
▁마찬가지로	-2290
▁곳에	-2291
▁체포	-2292
하기로	-2293
ig	-2294
▁선수권	-2295
역은	-2296
▁라디오	-2297
▁st	-2298
▁방어	-2299
▁상징	-2300
',	-2301
▁대해서는	-2302
▁이주	-2303
▁붕	-2304
▁달러	-2305
디어	-2306
▁앙	-2307
▁에서	-2308
▁혈	-2309
▁즉위	-2310
▁히로	-2311
소년	-2312
▁더불	-2313
id	-2314
▁살아	-2315
하라	-2316
평양	-2317
ve	-2318
▁계승	-2319
▁못하고	-2320
가로	-2321
▁공작	-2322
.3	-2323
았고	-2324
▁통치	-2325
▁논란	-2326
▁꾸	-2327
와는	-2328
▁그린	-2329
과학	-2330
▁처리	-2331
였고	-2332
하에	-2333
▁귀족	-2334
18	-2335
▁치료	-2336
▁바다	-2337
▁규정	-2338
▁준비	-2339
▁중간	-2340
역으로	-2341
▁더불어	-2342
▁값	-2343
▁나무	-2344
▁187	-2345
▁대응	-2346
▁종류	-2347
▁사용할	-2348
▁쌓	-2349
▁제기	-2350
▁오스트레일리아	-2351
▁숨	-2352
낸다	-2353
_3	-2354
▁있지	-2355
▁야마	-2356
▁이름이	-2357
주로	-2358
▁있었고	-2359
력의	-2360
일은	-2361
으면서	-2362
▁1988	-2363
가이다	-2364
▁록	-2365
▁이루어져	-2366
▁해안	-2367
▁나타나	-2368
초등학교는	-2369
▁낳	-2370
▁1945	-2371
▁지적	-2372
▁다루	-2373
▁몇몇	-2374
▁시도	-2375
▁이용하여	-2376
▁완성	-2377
라인	-2378
▁위험	-2379
▁것도	-2380
▁부른다	-2381
▁대륙	-2382
▁엔진	-2383
년을	-2384
되자	-2385
화된	-2386
▁종합	-2387
나가	-2388
▁천황	-2389
▁회의	-2390
▁노선	-2391
력으로	-2392
▁좋아	-2393
크라	-2394
▁본래	-2395
▁표시	-2396
조가	-2397
▁살해	-2398
▁따른	-2399
서로	-2400
미터	-2401
하이	-2402
▁각종	-2403
▁빅	-2404
물이	-2405
트에서	-2406
▁조선민주주의	-2407
▁동쪽	-2408
▁보유	-2409
계가	-2410
인들이	-2411
▁가정	-2412
▁취임	-2413
▁불교	-2414
▁밑	-2415
",	-2416
치의	-2417
▁얼마	-2418
▁분포	-2419
선거	-2420
▁투표	-2421
자들의	-2422
11	-2423
론을	-2424
학생	-2425
국을	-2426
▁강한	-2427
▁디지	-2428
▁교회	-2429
▁경우에는	-2430
▁문학	-2431
▁아일랜드	-2432
▁젊	-2433
세에	-2434
▁다만	-2435
소에	-2436
▁못한	-2437
▁제안	-2438
시키고	-2439
▁곤	-2440
려고	-2441
소로	-2442
▁아카	-2443
루스	-2444
▁직후	-2445
정보	-2446
▁하계	-2447
였으며	-2448
▁사용된다	-2449
트워	-2450
▁삶	-2451
▁정부는	-2452
▁신라	-2453
▁옮겨	-2454
▁달성	-2455
▁문제가	-2456
계는	-2457
켓몬	-2458
▁동생	-2459
▁위치하고	-2460
촬영	-2461
▁재판	-2462
▁벤	-2463
체로	-2464
▁안정	-2465
▁주인공	-2466
분에	-2467
▁중단	-2468
▁80	-2469
▁표기	-2470
▁관련된	-2471
▁사이에서	-2472
80	-2473
롭게	-2474
▁떠나	-2475
내고	-2476
▁이야기	-2477
▁활용	-2478
▁1989	-2479
▁개통	-2480
▁186	-2481
▁유대	-2482
ad	-2483
▁의견	-2484
▁만화	-2485
▁뇌	-2486
▁수비	-2487
▁종료	-2488
▁경상북도	-2489
▁당선	-2490
▁충돌	-2491
권이	-2492
시킨	-2493
나라의	-2494
▁지난	-2495
▁캠	-2496
지방	-2497
적으로는	-2498
회사	-2499
▁멕시코	-2500
▁말을	-2501
▁번역	-2502
어졌다	-2503
▁이슬	-2504
▁왼	-2505
나의	-2506
▁바르	-2507
▁가입	-2508
▁오사카	-2509
▁나머지	-2510
▁유니	-2511
▁그렇	-2512
▁가능한	-2513
▁포르투	-2514
▁지역을	-2515
▁중의	-2516
▁해외	-2517
▁빨	-2518
▁관계를	-2519
▁되었으며	-2520
▁캘	-2521
량의	-2522
▁32	-2523
▁금지	-2524
▁하루	-2525
▁남북	-2526
헝가	-2527
분을	-2528
선에서	-2529
▁스트	-2530
▁사진	-2531
비는	-2532
▁1950	-2533
▁문제를	-2534
▁둘러	-2535
해졌다	-2536
▁시험	-2537
▁혁명	-2538
▁조성	-2539
메달을	-2540
족의	-2541
▁주에	-2542
▁승격	-2543
관에	-2544
▁벗	-2545
▁카를	-2546
▁관광	-2547
▁경상남도	-2548
▁미사	-2549
▁정식	-2550
러운	-2551
▁그려	-2552
▁소개	-2553
▁만들었다	-2554
연합	-2555
▁만들어진	-2556
▁주목	-2557
▁가까운	-2558
▁읽	-2559
▁필요한	-2560
▁스코	-2561
▁생성	-2562
▁안에	-2563
수이다	-2564
▁싶	-2565
즈의	-2566
▁팀의	-2567
비가	-2568
▁낮은	-2569
▁가리키는	-2570
원과	-2571
▁실행	-2572
▁이집	-2573
ch	-2574
▁최고의	-2575
.4	-2576
▁내각	-2577
▁다카	-2578
16	-2579
▁뮤직	-2580
로로	-2581
▁갖추	-2582
▁의미한다	-2583
▁오후	-2584
센터	-2585
▁디지털	-2586
▁유일한	-2587
ot	-2588
▁간의	-2589
되었던	-2590
신의	-2591
▁서쪽	-2592
▁빼	-2593
▁뒤에	-2594
▁듣	-2595
▁물론	-2596
▁구조를	-2597
▁전투에서	-2598
리포	-2599
▁건너	-2600
승을	-2601
▁보존	-2602
▁출신의	-2603
당을	-2604
▁아내	-2605
▁윌리	-2606
▁수가	-2607
▁이래	-2608
▁기록을	-2609
13	-2610
▁경기를	-2611
▁근무	-2612
▁지하철	-2613
바이	-2614
▁시기	-2615
▁합류	-2616
▁제거	-2617
▁아니다	-2618
아시아	-2619
▁년	-2620
▁실제로	-2621
▁정치적	-2622
▁르	-2623
▁위치해	-2624
▁나누	-2625
주시	-2626
단으로	-2627
▁즐	-2628
▁위의	-2629
▁사령	-2630
▁둔	-2631
▁촬영	-2632
▁프레	-2633
▁바탕으로	-2634
▁무렵	-2635
▁사실을	-2636
▁기록했다	-2637
▁벽	-2638
▁저항	-2639
▁수는	-2640
▁평화	-2641
▁주었다	-2642
▁죄	-2643
▁베르	-2644
전으로	-2645
월까지	-2646
당이	-2647
▁mbc	-2648
▁계산	-2649
상과	-2650
▁인근	-2651
사회	-2652
▁기존의	-2653
▁인디	-2654
인지	-2655
▁만약	-2656
▁적이	-2657
▁베네	-2658
▁서비스	-2659
파의	-2660
▁연극	-2661
차를	-2662
▁시대의	-2663
▁지명	-2664
▁해군	-2665
▁의해서	-2666
▁적극	-2667
치로	-2668
▁정착	-2669
▁엘리	-2670
▁종목	-2671
▁맹	-2672
▁묘사	-2673
▁천문	-2674
▁이스	-2675
했기	-2676
전히	-2677
고로	-2678
도시	-2679
▁있었지만	-2680
작용	-2681
▁보수	-2682
▁말이다	-2683
▁이슬람	-2684
주교	-2685
▁비디오	-2686
▁사람은	-2687
해를	-2688
▁이다	-2689
▁억	-2690
▁2,	-2691
웨이	-2692
▁너무	-2693
문이	-2694
오카	-2695
트에	-2696
상에서	-2697
▁발사	-2698
▁중학교	-2699
가가	-2700
▁명예	-2701
▁하기	-2702
▁전반	-2703
na	-2704
▁고구	-2705
▁마련	-2706
▁일어난	-2707
에게는	-2708
프가	-2709
▁전달	-2710
14	-2711
종이	-2712
▁일이	-2713
만에	-2714
▁불러	-2715
▁썼	-2716
▁던	-2717
점에서	-2718
▁혐	-2719
요일	-2720
▁제정	-2721
생활	-2722
▁에이	-2723
▁오르	-2724
지션	-2725
과를	-2726
시즌	-2727
▁가는	-2728
인들은	-2729
질을	-2730
▁객	-2731
▁넘어	-2732
▁성격	-2733
▁집중	-2734
▁인식	-2735
▁이승	-2736
▁파이	-2737
▁알렉산	-2738
피아	-2739
▁포켓몬	-2740
▁센터	-2741
▁초등학교이다	-2742
▁북부	-2743
▁확대	-2744
▁생활을	-2745
준다	-2746
.6	-2747
▁굴	-2748
화는	-2749
▁그해	-2750
▁배경	-2751
호가	-2752
▁입학	-2753
▁전략	-2754
▁출생	-2755
17	-2756
이던	-2757
▁펜	-2758
▁뿐만	-2759
서에	-2760
보다는	-2761
▁마이크로	-2762
▁불린다	-2763
드와	-2764
▁비밀	-2765
▁사람을	-2766
력에	-2767
▁항상	-2768
▁기능을	-2769
..	-2770
op	-2771
▁기후	-2772
졌으며	-2773
년대에	-2774
▁설립된	-2775
▁부근	-2776
▁받아들	-2777
▁끼	-2778
▁안전	-2779
▁원자	-2780
▁위치한다	-2781
밖에	-2782
인트	-2783
주가	-2784
▁왔다	-2785
로서의	-2786
br	-2787
산의	-2788
체에	-2789
화에	-2790
▁반면	-2791
래프트	-2792
.7	-2793
▁후쿠	-2794
▁보여주	-2795
▁부모	-2796
설을	-2797
▁인한	-2798
▁일종이다	-2799
▁납	-2800
▁윌리엄	-2801
▁합병	-2802
끄는	-2803
▁신문	-2804
기고	-2805
종은	-2806
▁통하여	-2807
실을	-2808
▁홍콩	-2809
▁옆	-2810
▁중국의	-2811
티아	-2812
▁경우도	-2813
▁바람	-2814
▁대사	-2815
us	-2816
▁전개	-2817
시대의	-2818
장이다	-2819
면의	-2820
▁혜	-2821
▁선의	-2822
▁전환	-2823
력과	-2824
석을	-2825
▁상업	-2826
▁정부의	-2827
그룹	-2828
▁겨울	-2829
▁젊은	-2830
▁강조	-2831
▁만드는	-2832
▁국왕	-2833
▁붕괴	-2834
▁류	-2835
▁올랐다	-2836
민족	-2837
▁나중에	-2838
oc	-2839
까지의	-2840
▁쉽게	-2841
▁유로	-2842
ia	-2843
▁공격을	-2844
▁제목	-2845
계에서	-2846
▁1987	-2847
▁매년	-2848
▁강력한	-2849
계로	-2850
즈는	-2851
▁네트워	-2852
▁승리를	-2853
▁스토	-2854
▁국방	-2855
년과	-2856
▁아키	-2857
지도	-2858
▁남동	-2859
▁시청	-2860
▁동료	-2861
트와	-2862
▁하게	-2863
▁사회주의	-2864
씨는	-2865
▁확보	-2866
물로	-2867
▁나폴	-2868
▁수학	-2869
▁이후에	-2870
▁의사	-2871
라노	-2872
▁등은	-2873
▁케이	-2874
▁고구려	-2875
▁채택	-2876
▁오스	-2877
▁침공	-2878
▁전라남도	-2879
▁허용	-2880
▁위협	-2881
▁시작되었다	-2882
교회	-2883
▁때에는	-2884
▁포르투갈	-2885
48	-2886
▁작성	-2887
되었는데	-2888
▁끊	-2889
▁관찰	-2890
군으로	-2891
▁보면	-2892
국에	-2893
▁미술	-2894
적이고	-2895
전쟁	-2896
▁제도	-2897
동은	-2898
▁전시	-2899
권은	-2900
▁수립	-2901
세기에	-2902
▁일반적인	-2903
▁35	-2904
▁관심을	-2905
러스	-2906
▁점차	-2907
▁내부	-2908
▁떨어져	-2909
면은	-2910
▁아시	-2911
▁뒷	-2912
▁아우	-2913
▁km	-2914
▁나뉘	-2915
▁공급	-2916
▁냉	-2917
▁마리아	-2918
▁의원	-2919
▁판단	-2920
공항	-2921
▁제외한	-2922
▁다섯	-2923
▁당시의	-2924
법은	-2925
▁구단	-2926
▁인기를	-2927
산업	-2928
▁탑재	-2929
까지는	-2930
로운	-2931
.8	-2932
대에서	-2933
▁대립	-2934
▁덴마	-2935
▁만족	-2936
디아	-2937
▁가리킨다	-2938
▁밖에	-2939
▁편집	-2940
신이	-2941
▁꼬	-2942
▁자리를	-2943
일본	-2944
▁계약을	-2945
▁터키	-2946
▁최소	-2947
약을	-2948
▁부문	-2949
▁헝가	-2950
▁여전히	-2951
하려는	-2952
▁사람들은	-2953
▁그래서	-2954
▁재직	-2955
선과	-2956
▁생물	-2957
▁출발	-2958
▁그곳	-2959
▁갖춘	-2960
정으로	-2961
ir	-2962
▁사용되는	-2963
▁폰	-2964
류를	-2965
▁동부	-2966
동차	-2967
법의	-2968
▁보도	-2969
▁1986	-2970
법에	-2971
▁사용하여	-2972
▁오브	-2973
▁흘	-2974
개발	-2975
메이	-2976
구로	-2977
라우	-2978
▁태평양	-2979
▁사용한	-2980
▁시기에	-2981
▁장기	-2982
리포니아	-2983
의로	-2984
사이	-2985
▁/	-2986
았으며	-2987
▁해체	-2988
▁득점	-2989
▁충분	-2990
▁정보를	-2991
슨은	-2992
▁이끄는	-2993
▁뒤를	-2994
시로	-2995
▁없어	-2996
▁개편	-2997
▁비난	-2998
▁등에서	-2999
▁태어난	-3000
▁헨	-3001
▁남편	-3002
▁구축	-3003
단체	-3004
받아	-3005
당에	-3006
후의	-3007
▁미국에서	-3008
▁1984	-3009
용으로	-3010
▁해방	-3011
-3	-3012
당한	-3013
역에	-3014
▁연장	-3015
▁귀국	-3016
드에서	-3017
▁보이	-3018
▁교체	-3019
▁로스	-3020
ur	-3021
하다고	-3022
▁500	-3023
▁시대에	-3024
▁높이	-3025
im	-3026
▁외에도	-3027
▁시내	-3028
▁알아	-3029
▁척	-3030
▁민간	-3031
▁인수	-3032
▁한다는	-3033
형은	-3034
▁잎	-3035
▁전사	-3036
▁유리	-3037
▁폭발	-3038
되었지만	-3039
▁성우	-3040
기업	-3041
제에	-3042
▁철도역이다	-3043
▁루이	-3044
▁강원도	-3045
▁파일	-3046
▁뛰어난	-3047
▁편입	-3048
▁불과	-3049
▁힘을	-3050
▁왔	-3051
면에서	-3052
▁주장했다	-3053
해의	-3054
▁얼굴	-3055
미널	-3056
서가	-3057
서의	-3058
▁90	-3059
습니다	-3060
▁측정	-3061
수와	-3062
▁책임	-3063
▁자본	-3064
었으나	-3065
▁인간의	-3066
▁제임	-3067
식에	-3068
▁부터	-3069
니스	-3070
▁세운	-3071
▁수입	-3072
▁전차	-3073
▁봄	-3074
▁때에	-3075
르타	-3076
▁쇠	-3077
ent	-3078
▁대회에서	-3079
▁캘리포니아	-3080
자에게	-3081
▁족	-3082
▁삼국	-3083
▁죽은	-3084
시오	-3085
어와	-3086
은행	-3087
이라고도	-3088
▁춘	-3089
▁셀	-3090
개를	-3091
▁사후	-3092
▁경향	-3093
문화재	-3094
▁사람의	-3095
점에	-3096
▁아름	-3097
▁감소	-3098
형이	-3099
▁1985	-3100
▁회원	-3101
인에	-3102
▁한다고	-3103
▁북서	-3104
권에	-3105
▁하면서	-3106
자들을	-3107
▁마사	-3108
▁비교적	-3109
었는데	-3110
▁블랙	-3111
▁울산	-3112
▁채널	-3113
▁필리핀	-3114
▁본격	-3115
일보	-3116
.9	-3117
역의	-3118
▁회복	-3119
▁불가능	-3120
▁스튜	-3121
소에서	-3122
▁노력	-3123
▁속에	-3124
▁신설	-3125
▁남성	-3126
▁에스	-3127
▁옹	-3128
▁이것이	-3129
▁모스크	-3130
▁외에	-3131
틀랜드	-3132
▁받는	-3133
▁수정	-3134
▁메이저	-3135
료로	-3136
▁서부	-3137
▁미래	-3138
▁원칙	-3139
같은	-3140
▁지역은	-3141
▁암살	-3142
▁홈런	-3143
경에	-3144
▁게이	-3145
▁대형	-3146
70	-3147
▁설치되어	-3148
▁뜻이	-3149
▁초반	-3150
▁마쓰	-3151
역에서	-3152
▁대규모	-3153
하고자	-3154
▁나오는	-3155
하였지만	-3156
▁평양	-3157
▁증거	-3158
▁근대	-3159
▁소프트웨어	-3160
ap	-3161
▁증명	-3162
라고도	-3163
무원	-3164
다운	-3165
▁복잡	-3166
▁팀은	-3167
헨티	-3168
▁내용을	-3169
▁핀란드	-3170
bo	-3171
▁변호	-3172
▁있었으나	-3173
▁충청남도	-3174
라가	-3175
▁행정구	-3176
관리	-3177
룬다	-3178
▁범죄	-3179
▁발표했다	-3180
붉은	-3181
▁정리	-3182
▁멜	-3183
▁좀	-3184
수에	-3185
▁항복	-3186
레이션	-3187
어져	-3188
▁자신을	-3189
▁설정	-3190
▁특수	-3191
▁했지만	-3192
년이	-3193
▁종종	-3194
▁이번	-3195
신은	-3196
▁있었으며	-3197
▁집단	-3198
▁되면서	-3199
▁기획	-3200
▁사는	-3201
▁아르헨티	-3202
▁인하여	-3203
▁꿈	-3204
▁그에	-3205
▁열대	-3206
두고	-3207
선으로	-3208
▁주교	-3209
▁라틴	-3210
려는	-3211
▁아랍	-3212
▁흰	-3213
▁정도의	-3214
▁하는데	-3215
▁유명하다	-3216
25	-3217
▁노예	-3218
▁농업	-3219
▁탄생	-3220
나와	-3221
라엘	-3222
품을	-3223
▁하자	-3224
동의	-3225
▁않을	-3226
▁보이는	-3227
리어	-3228
▁윈도우	-3229
▁보급	-3230
▁산맥	-3231
정책	-3232
▁어떻	-3233
▁속에서	-3234
▁아나	-3235
점은	-3236
▁조금	-3237
료를	-3238
▁여행	-3239
분의	-3240
키아	-3241
차례	-3242
지면서	-3243
▁사실상	-3244
▁방식으로	-3245
ay	-3246
▁화학	-3247
▁균	-3248
경의	-3249
대전	-3250
▁라이브	-3251
케이	-3252
▁아주	-3253
유의	-3254
▁나서	-3255
▁창설	-3256
테인	-3257
▁요리	-3258
▁에드	-3259
▁간주	-3260
▁세이	-3261
▁쉬	-3262
▁흔히	-3263
자치	-3264
▁했으나	-3265
▁중화인민공화국	-3266
크를	-3267
▁현실	-3268
▁쓰인다	-3269
em	-3270
▁북동	-3271
▁숫	-3272
▁건강	-3273
하려고	-3274
▁짓	-3275
▁물러	-3276
▁형태의	-3277
하나	-3278
▁구체	-3279
었지만	-3280
리기	-3281
배우	-3282
▁우선	-3283
▁쪽	-3284
로도	-3285
▁고전	-3286
▁대상으로	-3287
▁저장	-3288
▁1982	-3289
▁행사	-3290
▁엑	-3291
▁텍	-3292
이었고	-3293
▁길이	-3294
모리	-3295
명한	-3296
▁클래	-3297
▁내에서	-3298
기에는	-3299
▁전혀	-3300
▁강의	-3301
▁파리	-3302
▁편성	-3303
크라이나	-3304
▁공부	-3305
▁기계	-3306
▁사용되었다	-3307
▁발매되었다	-3308
안에	-3309
해진	-3310
라비아	-3311
▁트리	-3312
▁통신	-3313
지기	-3314
도에서	-3315
▁숲	-3316
▁활발	-3317
프의	-3318
▁죽음	-3319
▁조정	-3320
▁참석	-3321
▁이전에	-3322
사키	-3323
학년	-3324
▁뜻을	-3325
▁동계	-3326
▁이스라엘	-3327
사령	-3328
▁통한	-3329
▁원작	-3330
▁임명되었다	-3331
▁재정	-3332
등을	-3333
식과	-3334
▁300	-3335
▁구성된	-3336
▁1920	-3337
▁샌	-3338
경제	-3339
▁하늘	-3340
90	-3341
▁뿌	-3342
로스	-3343
▁오전	-3344
▁잘못	-3345
▁추측	-3346
▁카메	-3347
겠다고	-3348
▁했고	-3349
▁어떻게	-3350
▁도움을	-3351
라운드	-3352
▁태어나	-3353
세이	-3354
▁이란	-3355
▁스파	-3356
▁장애	-3357
▁진화	-3358
음악	-3359
▁1983	-3360
▁교토	-3361
영화	-3362
▁대항	-3363
um	-3364
▁둥	-3365
▁링	-3366
함에	-3367
러는	-3368
산은	-3369
▁되지	-3370
▁다음을	-3371
▁발표한	-3372
문의	-3373
인들의	-3374
티브	-3375
▁중반	-3376
▁수여	-3377
이었으나	-3378
▁45	-3379
적이다	-3380
▁장착	-3381
▁묻	-3382
▁오리	-3383
▁오히	-3384
▁내에	-3385
▁오랜	-3386
▁1930	-3387
▁공공	-3388
씨의	-3389
▁과정을	-3390
▁인사	-3391
▁맡고	-3392
▁델	-3393
▁중화민	-3394
미는	-3395
▁정상	-3396
▁세르	-3397
▁투입	-3398
동이	-3399
세포	-3400
▁기록하였다	-3401
▁털	-3402
▁업무	-3403
드에	-3404
▁세웠다	-3405
▁적은	-3406
▁이끌고	-3407
▁프로듀	-3408
▁기억	-3409
▁is	-3410
▁대상	-3411
시와	-3412
았던	-3413
▁생겨	-3414
_4	-3415
▁우크라이나	-3416
슈타	-3417
▁사용하고	-3418
▁남서	-3419
▁후손	-3420
간에	-3421
▁일본에서	-3422
▁했으며	-3423
▁도서	-3424
테인먼	-3425
▁신경	-3426
▁시각	-3427
ut	-3428
▁현재까지	-3429
▁없고	-3430
▁확정	-3431
▁세계에서	-3432
만은	-3433
▁무장	-3434
버트	-3435
면이	-3436
리스트	-3437
▁애플	-3438
▁얻었다	-3439
▁비율	-3440
▁옷	-3441
▁협력	-3442
▁뽑	-3443
▁아테	-3444
▁1972	-3445
물은	-3446
▁몽골	-3447
▁피아	-3448
시킬	-3449
▁끝나	-3450
▁짧은	-3451
받은	-3452
▁사회적	-3453
▁넓은	-3454
▁등장하는	-3455
▁가격	-3456
다른	-3457
공업	-3458
하다는	-3459
역이	-3460
▁개정	-3461
▁잭	-3462
▁붙여	-3463
▁세우	-3464
당했다	-3465
▁섭	-3466
▁지닌	-3467
호의	-3468
▁포지션	-3469
▁캄	-3470
▁마침	-3471
▁에피	-3472
▁찰	-3473
▁하였고	-3474
▁개봉한	-3475
터테인먼	-3476
▁붉은	-3477
▁이탈리아의	-3478
▁있었는데	-3479
싱턴	-3480
▁보였다	-3481
▁은행	-3482
▁오히려	-3483
▁.	-3484
▁콩	-3485
▁타고	-3486
▁권한	-3487
령을	-3488
▁만주	-3489
가에	-3490
▁블루	-3491
▁1940	-3492
▁머리	-3493
▁고양	-3494
어들	-3495
어도	-3496
▁전쟁이	-3497
의의	-3498
지이다	-3499
▁이후에는	-3500
▁모스크바	-3501
▁컬	-3502
▁1979	-3503
▁거절	-3504
▁나카	-3505
▁듯	-3506
타를	-3507
▁신앙	-3508
▁러시아의	-3509
리학	-3510
▁만큼	-3511
▁확실	-3512
▁그에게	-3513
▁소비에	-3514
조에	-3515
일이	-3516
▁구별	-3517
보는	-3518
아버	-3519
▁고향	-3520
▁공개된	-3521
트라	-3522
▁sk	-3523
▁은하	-3524
▁동일한	-3525
▁띠	-3526
▁연맹	-3527
▁박사	-3528
보를	-3529
언을	-3530
세와	-3531
▁조선민주주의인민공화국	-3532
▁발견된다	-3533
▁서양	-3534
▁180	-3535
▁브랜드	-3536
▁답	-3537
▁고정	-3538
ver	-3539
▁비용	-3540
▁전쟁을	-3541
스럽	-3542
▁33	-3543
▁사례	-3544
▁북아	-3545
재를	-3546
▁장악	-3547
▁전설	-3548
형으로	-3549
▁cd	-3550
▁가로	-3551
▁군의	-3552
▁살고	-3553
▁핵심	-3554
전과	-3555
판을	-3556
▁되면	-3557
리게	-3558
를린	-3559
▁투수	-3560
오프	-3561
▁창립	-3562
▁위해서는	-3563
▁광고	-3564
▁sbs	-3565
였으나	-3566
문은	-3567
▁정부가	-3568
▁나는	-3569
▁스피	-3570
▁잠시	-3571
▁요한	-3572
▁제임스	-3573
▁활동하였다	-3574
▁팀이	-3575
다이	-3576
▁리더	-3577
술을	-3578
▁금융	-3579
▁나와	-3580
▁부인	-3581
국으로	-3582
니의	-3583
받고	-3584
▁시장	-3585
▁에너지	-3586
▁개선	-3587
▁형제	-3588
▁스코틀랜드	-3589
워드	-3590
▁차이가	-3591
리우	-3592
▁1973	-3593
▁36	-3594
▁한번	-3595
▁멸망	-3596
구와	-3597
▁요새	-3598
▁시티	-3599
▁문자	-3600
비의	-3601
박쥐	-3602
법이	-3603
데스	-3604
실은	-3605
▁취급	-3606
▁지원을	-3607
▁약간	-3608
▁머물	-3609
▁역사상	-3610
▁예상	-3611
▁발생한	-3612
자기	-3613
▁뜻한다	-3614
▁자체	-3615
진은	-3616
▁저지	-3617
▁간단	-3618
▁유도	-3619
사인	-3620
유럽	-3621
▁절대	-3622
▁방출	-3623
▁통해서	-3624
국에서	-3625
▁보는	-3626
▁시작한	-3627
▁검은	-3628
▁국가의	-3629
▁영입	-3630
데미	-3631
이와	-3632
▁이용한	-3633
▁기반으로	-3634
▁박물	-3635
24	-3636
▁플로	-3637
▁앞서	-3638
마의	-3639
▁사단	-3640
▁베이징	-3641
▁수출	-3642
ag	-3643
▁역을	-3644
▁독자	-3645
세대	-3646
▁계획을	-3647
▁덮	-3648
류가	-3649
▁녹음	-3650
▁시간이	-3651
이었으며	-3652
▁부활	-3653
▁목적	-3654
▁어렵	-3655
▁이용해	-3656
왕이	-3657
▁이른	-3658
추어	-3659
▁1981	-3660
▁레코	-3661
▁자는	-3662
화로	-3663
▁주어	-3664
▁후에는	-3665
▁제출	-3666
▁전후	-3667
23	-3668
으로도	-3669
▁강점	-3670
더라도	-3671
석은	-3672
▁낭	-3673
▁행성	-3674
▁경성	-3675
▁번째로	-3676
터는	-3677
▁기사	-3678
지인	-3679
▁하면	-3680
▁개시	-3681
▁도움	-3682
라크	-3683
▁이것을	-3684
▁삭	-3685
▁lg	-3686
소프트	-3687
동으로	-3688
테르	-3689
▁첨	-3690
▁에도	-3691
▁la	-3692
▁히데	-3693
▁훨	-3694
▁38	-3695
▁높이는	-3696
▁관심	-3697
▁롯	-3698
▁오픈	-3699
un	-3700
네시아	-3701
▁도중	-3702
색을	-3703
▁해서	-3704
경은	-3705
▁1974	-3706
▁솔로	-3707
▁펠	-3708
▁그것을	-3709
▁헤이	-3710
소와	-3711
조선	-3712
▁훨씬	-3713
▁z	-3714
나이티	-3715
에게서	-3716
▁이르는	-3717
▁음력	-3718
▁무기	-3719
▁공산주의	-3720
문학	-3721
행위	-3722
▁트레이	-3723
▁빠른	-3724
▁비록	-3725
▁400	-3726
▁팀을	-3727
▁운용	-3728
▁채용	-3729
▁해당하는	-3730
생의	-3731
일로	-3732
안의	-3733
▁욕	-3734
년에서	-3735
익을	-3736
▁결과를	-3737
▁포함되어	-3738
▁시작하여	-3739
▁얻어	-3740
병을	-3741
음에도	-3742
▁처음에는	-3743
▁심각	-3744
시설	-3745
교를	-3746
▁때의	-3747
▁유나이티	-3748
▁유엔	-3749
▁건국	-3750
▁지낸	-3751
셔널	-3752
▁점에서	-3753
▁전용	-3754
▁일으켰	-3755
히는	-3756
▁반복	-3757
▁보냈다	-3758
▁짐	-3759
분이	-3760
▁세종	-3761
▁신인	-3762
리아의	-3763
▁판결	-3764
▁그것은	-3765
영은	-3766
리노	-3767
경찰	-3768
▁인공	-3769
예술	-3770
▁185	-3771
▁혼란	-3772
▁그러한	-3773
원이다	-3774
▁때부터	-3775
▁프로세	-3776
도르	-3777
▁정복	-3778
치에	-3779
▁하드	-3780
▁주식	-3781
▁함수	-3782
▁강제	-3783
기압	-3784
▁튀	-3785
리트	-3786
▁고등	-3787
▁받게	-3788
▁인터뷰	-3789
▁각각의	-3790
▁계급	-3791
▁철학	-3792
▁높아	-3793
▁조합	-3794
라를	-3795
▁형식	-3796
기에서	-3797
▁워싱턴	-3798
▁오래된	-3799
▁1948	-3800
▁지니	-3801
▁원정	-3802
▁1963	-3803
인민공화국의	-3804
우리	-3805
차로	-3806
▁유형	-3807
▁관할한다	-3808
▁전라북도	-3809
론의	-3810
▁수원	-3811
▁반발	-3812
▁방향으로	-3813
,5	-3814
▁육상	-3815
▁응용	-3816
▁발표하였다	-3817
▁좁	-3818
▁약속	-3819
산이	-3820
▁공포	-3821
▁셰	-3822
▁융	-3823
만큼	-3824
제국	-3825
▁문화재	-3826
▁1946	-3827
▁소비에트	-3828
산에	-3829
타는	-3830
▁역대	-3831
▁카이	-3832
▁이유는	-3833
▁듀	-3834
고는	-3835
▁추정된다	-3836
▁랭	-3837
▁없다고	-3838
▁사용되고	-3839
▁받지	-3840
스포	-3841
▁대표팀	-3842
▁경기에	-3843
▁시작으로	-3844
▁한때	-3845
▁건조	-3846
아는	-3847
▁방법을	-3848
▁성을	-3849
▁노부	-3850
▁사망하였다	-3851
로그	-3852
▁생명	-3853
▁나이	-3854
▁투자	-3855
▁포위	-3856
▁주고	-3857
▁라는	-3858
▁출입	-3859
하마	-3860
▁챔피언스	-3861
▁식민지	-3862
지며	-3863
▁논쟁	-3864
▁됐다	-3865
21	-3866
▁병사	-3867
등의	-3868
▁도망	-3869
드시	-3870
▁공을	-3871
▁이야기를	-3872
경기에	-3873
▁모여	-3874
▁ii	-3875
스러운	-3876
▁공유	-3877
▁다니	-3878
fc	-3879
▁대공	-3880
연을	-3881
마스	-3882
▁여객철도	-3883
▁오토	-3884
▁선수가	-3885
생을	-3886
▁1976	-3887
▁1968	-3888
건을	-3889
수록	-3890
▁밀도는	-3891
니어	-3892
니아의	-3893
페이	-3894
▁빠져	-3895
▁1978	-3896
항공	-3897
▁자격	-3898
▁프란	-3899
▁가능성이	-3900
▁이민	-3901
we	-3902
다면	-3903
당과	-3904
등이	-3905
▁상륙	-3906
일러	-3907
지자	-3908
▁합의	-3909
▁시간을	-3910
화와	-3911
▁종류의	-3912
▁식물	-3913
▁이중	-3914
▁토론	-3915
▁잇는	-3916
▁상당히	-3917
모를	-3918
▁pr	-3919
▁도달	-3920
▁아침	-3921
▁흡수	-3922
▁150	-3923
석이	-3924
들이다	-3925
▁써	-3926
렸고	-3927
▁고속	-3928
▁베를린	-3929
▁사건을	-3930
▁쫓	-3931
자이	-3932
▁거대한	-3933
▁1975	-3934
▁아메리카	-3935
고속도로	-3936
▁태풍	-3937
▁알게	-3938
바르	-3939
▁지방의	-3940
_5	-3941
개가	-3942
▁방식	-3943
▁말았다	-3944
▁아들이	-3945
▁박정	-3946
▁시즌을	-3947
▁총독	-3948
▁포기	-3949
▁양성	-3950
▁덧	-3951
미를	-3952
브리	-3953
▁탈출	-3954
▁이들의	-3955
단과	-3956
세로	-3957
▁대수	-3958
▁부상	-3959
▁생긴	-3960
▁말레이	-3961
▁맡아	-3962
▁어떠	-3963
▁차지했다	-3964
ce	-3965
온은	-3966
▁대성	-3967
기간	-3968
진이	-3969
▁버전	-3970
▁라고	-3971
▁선보	-3972
▁1971	-3973
▁무엇	-3974
▁찍	-3975
▁금속	-3976
▁점을	-3977
▁컵	-3978
▁신성	-3979
▁경우는	-3980
▁넘는	-3981
▁해에	-3982
▁그런데	-3983
교통	-3984
▁연재	-3985
▁버스	-3986
면으로	-3987
▁데이비	-3988
▁경계	-3989
▁하였으나	-3990
▁1969	-3991
▁스크	-3992
▁슬로	-3993
▁전철	-3994
▁1949	-3995
▁단일	-3996
▁방사	-3997
리케	-3998
▁율	-3999
▁플랫	-4000
35	-4001
▁and	-4002
▁공식적으로	-4003
▁2018	-4004
▁선고	-4005
음이	-4006
▁롤	-4007
차가	-4008
▁청년	-4009
경이	-4010
▁프리미	-4011
▁모리	-4012
▁취득	-4013
▁보아	-4014
▁벨기에	-4015
▁내의	-4016
▁쓰는	-4017
▁나치	-4018
▁숭	-4019
진의	-4020
▁대비	-4021
th	-4022
전문	-4023
▁작품을	-4024
▁아들로	-4025
▁부산광역시	-4026
▁되자	-4027
▁한반	-4028
▁길이는	-4029
▁운동을	-4030
▁ch	-4031
라와	-4032
로드	-4033
▁청소년	-4034
▁소수	-4035
론은	-4036
▁수송	-4037
▁자살	-4038
▁끝난	-4039
▁네트워크	-4040
▁이제	-4041
▁요코	-4042
▁기술을	-4043
▁창단	-4044
해도	-4045
▁동성	-4046
보드	-4047
▁건립	-4048
▁것처럼	-4049
▁명이	-4050
하였던	-4051
조로	-4052
▁에피소	-4053
▁지상역이다	-4054
▁지키	-4055
▁프로그램이다	-4056
마이	-4057
적의	-4058
▁작전	-4059
▁속한다	-4060
▁진압	-4061
▁아카데미	-4062
▁문서	-4063
▁학문	-4064
▁곳에서	-4065
▁많아	-4066
르가	-4067
대회	-4068
▁롯데	-4069
▁않았고	-4070
▁왼쪽	-4071
▁의회	-4072
곡을	-4073
미가	-4074
프를	-4075
▁김일	-4076
▁모아	-4077
▁다르다	-4078
주에	-4079
종으로	-4080
▁지급	-4081
kg	-4082
루는	-4083
▁가서	-4084
▁진입	-4085
여자	-4086
▁출장	-4087
26	-4088
▁이전의	-4089
▁나타내는	-4090
▁벼	-4091
▁운전	-4092
▁군대를	-4093
▁린	-4094
▁갈라	-4095
되면	-4096
200	-4097
버그	-4098
▁늦	-4099
차원	-4100
▁잡아	-4101
▁출마	-4102
왕은	-4103
▁동작	-4104
▁반드시	-4105
▁규칙	-4106
▁달라	-4107
▁후지	-4108
조판	-4109
▁pc	-4110
▁플라	-4111
▁동원	-4112
▁발견된	-4113
▁글로	-4114
▁경우에	-4115
ip	-4116
스케	-4117
▁죽었다	-4118
협회	-4119
터를	-4120
▁본관은	-4121
율을	-4122
▁사립	-4123
▁무역	-4124
▁존재하는	-4125
▁백작	-4126
45	-4127
무라	-4128
▁공통	-4129
▁맞이	-4130
▁것이며	-4131
▁층	-4132
▁했던	-4133
▁앞에	-4134
체육	-4135
▁후속	-4136
▁예선	-4137
▁여기에	-4138
세계	-4139
▁어떠한	-4140
▁노벨	-4141
▁사건이	-4142
47	-4143
▁셋	-4144
▁출신으로	-4145
▁홋	-4146
▁등장한다	-4147
▁반영	-4148
종을	-4149
▁마리	-4150
증을	-4151
▁마드리	-4152
▁그와	-4153
▁al	-4154
▁형태를	-4155
▁이룬다	-4156
상태	-4157
▁승진	-4158
▁미드	-4159
▁기자	-4160
▁일찍	-4161
항을	-4162
▁전공	-4163
제와	-4164
▁빼앗	-4165
안은	-4166
통신	-4167
sp	-4168
▁fa	-4169
▁렌	-4170
▁마케	-4171
▁들어서	-4172
▁엔터테인먼	-4173
▁엄청	-4174
▁체계	-4175
시킨다	-4176
▁동남	-4177
▁동의	-4178
▁1962	-4179
▁1964	-4180
▁되며	-4181
▁오스만	-4182
쿠라	-4183
▁아파	-4184
▁오른쪽	-4185
▁온라인	-4186
▁등급	-4187
▁기대	-4188
▁분쟁	-4189
▁돌아가	-4190
▁둘러싸	-4191
▁명명	-4192
▁수사	-4193
▁이후로	-4194
▁특별한	-4195
통을	-4196
▁탁	-4197
▁국무	-4198
▁논란이	-4199
27	-4200
질이	-4201
▁법칙	-4202
▁부임	-4203
▁목표로	-4204
▁기록한	-4205
▁공화	-4206
▁성능	-4207
▁능력을	-4208
▁스튜디오	-4209
▁지금의	-4210
▁대학교에서	-4211
▁챔피언스리그	-4212
▁미군	-4213
▁양자	-4214
▁다수의	-4215
▁사망했다	-4216
패를	-4217
저우	-4218
▁콘서	-4219
▁뉴스	-4220
▁맛	-4221
▁계기로	-4222
락을	-4223
선수	-4224
미의	-4225
섰다	-4226
임이	-4227
프레	-4228
▁역이다	-4229
▁꼭	-4230
▁공업	-4231
▁중세	-4232
리즘	-4233
▁번의	-4234
명에	-4235
▁보장	-4236
▁나뉜	-4237
▁호텔	-4238
▁타이완	-4239
▁역임했다	-4240
▁보컬	-4241
▁천연	-4242
▁중이다	-4243
이센	-4244
▁농민	-4245
▁콘스탄	-4246
▁진보	-4247
미디	-4248
방을	-4249
▁논의	-4250
▁자이	-4251
▁경기는	-4252
▁교환	-4253
▁깊은	-4254
났으며	-4255
▁체코	-4256
▁하나는	-4257
▁예정이다	-4258
류는	-4259
▁가을	-4260
산으로	-4261
▁선교	-4262
▁세력	-4263
베르크	-4264
▁거리	-4265
▁불법	-4266
주의를	-4267
▁전파	-4268
▁지붕	-4269
▁참전	-4270
▁하였으며	-4271
카이도	-4272
티노	-4273
▁배출	-4274
▁흘러	-4275
▁예측	-4276
노동	-4277
중앙	-4278
▁통제	-4279
▁파악	-4280
▁정책을	-4281
번째로	-4282
▁둘째	-4283
▁미니	-4284
▁회전	-4285
▁미나	-4286
▁주둔	-4287
▁플랫폼	-4288
▁원주	-4289
▁차별	-4290
▁서버	-4291
▁문제로	-4292
▁피해를	-4293
관과	-4294
▁변환	-4295
▁거래	-4296
▁않으며	-4297
▁겐	-4298
▁분할	-4299
차는	-4300
타이	-4301
으로서의	-4302
▁남은	-4303
▁제대로	-4304
▁댄	-4305
▁대개	-4306
표를	-4307
바로	-4308
▁구속	-4309
▁장식	-4310
번의	-4311
했었다	-4312
▁넓이는	-4313
주었다	-4314
▁목소	-4315
▁의료	-4316
총독	-4317
▁합격	-4318
▁두었다	-4319
▁저작	-4320
▁개발한	-4321
▁대부분은	-4322
▁수상했다	-4323
자들	-4324
%,	-4325
겠다는	-4326
장인	-4327
없는	-4328
▁당초	-4329
▁출간	-4330
▁마침내	-4331
시티	-4332
▁독특	-4333
▁생존	-4334
▁고용	-4335
▁열렸다	-4336
조합	-4337
▁37	-4338
▁1977	-4339
▁대략	-4340
▁상승	-4341
▁늘어	-4342
▁감독의	-4343
마는	-4344
▁제외하고	-4345
▁사태	-4346
▁경주	-4347
▁소년	-4348
▁처형	-4349
▁그레	-4350
▁q	-4351
▁인접	-4352
기까지	-4353
92	-4354
▁일정	-4355
▁베스트	-4356
▁독립운동	-4357
▁주관	-4358
▁대한민국에서는	-4359
연맹	-4360
▁받을	-4361
▁소녀	-4362
▁포함하고	-4363
학은	-4364
▁외부	-4365
▁이뤄	-4366
▁것이라	-4367
▁실질	-4368
▁없다는	-4369
▁주와	-4370
▁오페	-4371
▁1967	-4372
부터는	-4373
▁받았고	-4374
▁꺾	-4375
▁1941	-4376
▁올려	-4377
▁to	-4378
▁정확한	-4379
▁크고	-4380
▁해양	-4381
▁마지막으로	-4382
▁반대로	-4383
▁방법으로	-4384
▁풍부	-4385
▁데뷔하였다	-4386
▁나이로	-4387
중학교는	-4388
▁벡	-4389
▁지식	-4390
화되어	-4391
▁의미를	-4392
▁향상	-4393
에르	-4394
▁가지는	-4395
현의	-4396
레옹	-4397
▁알려졌다	-4398
세한	-4399
98	-4400
▁김영	-4401
▁힐	-4402
뿐만	-4403
치와	-4404
▁장군	-4405
▁이집트	-4406
▁일본에	-4407
신으로	-4408
플레이	-4409
▁아버지는	-4410
▁군주	-4411
▁55	-4412
▁임진	-4413
▁학습	-4414
▁쓸	-4415
파는	-4416
▁도쿠	-4417
▁좌우	-4418
▁부르는	-4419
해가	-4420
▁왕국의	-4421
▁1944	-4422
▁도시이다	-4423
▁창조	-4424
▁최다	-4425
▁해산	-4426
▁개막	-4427
▁제어	-4428
▁전주	-4429
▁쓰이는	-4430
▁승인	-4431
토의	-4432
▁펼쳐	-4433
▁효율	-4434
미야	-4435
▁인기	-4436
ice	-4437
▁지냈	-4438
▁당시에는	-4439
학에서	-4440
교는	-4441
▁34	-4442
▁프로젝트	-4443
▁연출	-4444
▁프로그램을	-4445
▁대기	-4446
▁가졌다	-4447
▁졸업하고	-4448
동과	-4449
▁작품은	-4450
▁관계가	-4451
▁그때	-4452
령이	-4453
님의	-4454
▁뜻하는	-4455
▁미디어	-4456
▁반도	-4457
▁수집	-4458
▁트로	-4459
ation	-4460
36	-4461
▁보조	-4462
겠다	-4463
▁점점	-4464
구에서	-4465
▁글을	-4466
▁오랫	-4467
▁빠르게	-4468
방의	-4469
▁요소	-4470
▁항성	-4471
▁쥐	-4472
▁틀	-4473
▁에어	-4474
▁you	-4475
사건	-4476
▁성인	-4477
▁1965	-4478
▁서비스를	-4479
▁1000	-4480
28	-4481
▁집행	-4482
국민	-4483
ie	-4484
▁다음은	-4485
▁선정되었다	-4486
여서	-4487
▁갔다	-4488
▁모양의	-4489
▁관료	-4490
▁동아	-4491
▁나폴레옹	-4492
▁급제	-4493
▁아테네	-4494
크가	-4495
▁페르시아	-4496
게임	-4497
▁마이클	-4498
▁활약을	-4499
▁신뢰	-4500
▁니콜	-4501
▁함락	-4502
▁문헌	-4503
▁그들이	-4504
향을	-4505
▁묶	-4506
▁국경	-4507
▁활동하고	-4508
ra	-4509
▁복합	-4510
▁닥	-4511
▁골을	-4512
였지만	-4513
▁오랫동안	-4514
▁완공	-4515
▁un	-4516
▁연구를	-4517
▁잉글랜드의	-4518
니가	-4519
났고	-4520
▁청나라	-4521
▁1961	-4522
▁명확	-4523
▁인도네시아	-4524
자로서	-4525
▁주장하였다	-4526
복을	-4527
▁지금까지	-4528
름을	-4529
▁쓰고	-4530
▁보병	-4531
▁75	-4532
▁평가를	-4533
공화국	-4534
▁것이라는	-4535
조사	-4536
▁망명	-4537
▁하나인	-4538
지원	-4539
▁de	-4540
▁의존	-4541
▁불렀다	-4542
▁작품이다	-4543
▁국제공항	-4544
▁침략	-4545
▁개최된	-4546
▁갖는	-4547
▁마치	-4548
이므로	-4549
▁이르러	-4550
ter	-4551
사우	-4552
▁실현	-4553
▁무덤	-4554
▁&	-4555
씨가	-4556
▁마이크로소프트	-4557
▁올리	-4558
▁감염	-4559
▁교육을	-4560
99	-4561
▁로켓	-4562
▁우려	-4563
▁1919	-4564
▁세르비아	-4565
주의의	-4566
▁연고	-4567
▁전통적인	-4568
본을	-4569
치아	-4570
▁지내	-4571
▁없으며	-4572
▁자녀	-4573
▁시리아	-4574
▁웨스트	-4575
개로	-4576
▁단독	-4577
▁왕국	-4578
카는	-4579
▁연결하는	-4580
▁한정	-4581
▁기록이	-4582
터가	-4583
▁개신	-4584
▁지어	-4585
루가	-4586
망을	-4587
▁조작	-4588
프리	-4589
▁받는다	-4590
물이다	-4591
연히	-4592
▁이후의	-4593
▁택	-4594
해져	-4595
▁삼각	-4596
▁음악을	-4597
▁출범	-4598
각을	-4599
리적	-4600
▁1966	-4601
▁흉	-4602
기념	-4603
▁대통령이	-4604
으니	-4605
▁가담	-4606
▁주전	-4607
▁헨리	-4608
디션	-4609
▁직업	-4610
▁포지션은	-4611
▁꼽	-4612
▁발발	-4613
▁명칭은	-4614
▁못하였다	-4615
▁조선총독	-4616
▁느끼	-4617
▁라인	-4618
▁연산	-4619
▁이루어졌다	-4620
▁도와	-4621
중의	-4622
▁켄	-4623
▁us	-4624
▁대표하는	-4625
▁1939	-4626
색의	-4627
리다	-4628
▁덴마크	-4629
거운	-4630
▁잡지	-4631
마트	-4632
▁썼다	-4633
▁합쳐	-4634
▁편찬	-4635
▁아사	-4636
양을	-4637
내에	-4638
▁파라	-4639
▁으로	-4640
▁시즌에	-4641
▁인디언	-4642
▁검찰	-4643
▁세인트	-4644
▁유사한	-4645
▁받아들여	-4646
코는	-4647
▁타임	-4648
▁이루고	-4649
일과	-4650
▁앞두고	-4651
▁총리	-4652
▁국회의원	-4653
린은	-4654
▁킬	-4655
재판	-4656
▁스위스	-4657
네스	-4658
▁성적	-4659
▁조선의	-4660
▁언제	-4661
2,	-4662
37	-4663
▁부하	-4664
▁공헌	-4665
▁정비	-4666
▁만들어졌다	-4667
국가	-4668
▁주지	-4669
▁충청북도	-4670
▁삽	-4671
▁일부는	-4672
▁한글	-4673
이었지만	-4674
▁국회	-4675
▁확립	-4676
되었다가	-4677
▁팝	-4678
▁중에는	-4679
▁공군	-4680
▁소송	-4681
▁자신들의	-4682
▁놓고	-4683
▁불안	-4684
의회	-4685
▁브리	-4686
축구	-4687
치게	-4688
▁의무	-4689
▁플레이오프	-4690
▁누구	-4691
▁향해	-4692
▁새겨	-4693
시키기	-4694
ak	-4695
▁띄	-4696
▁be	-4697
▁분열	-4698
▁합성	-4699
▁프로이센	-4700
▁일부를	-4701
▁이성	-4702
되었을	-4703
▁구현	-4704
▁분위	-4705
▁침입	-4706
▁이하	-4707
키스탄	-4708
▁섬의	-4709
책을	-4710
ist	-4711
▁말에	-4712
▁거듭	-4713
▁포함한다	-4714
▁신청	-4715
95	-4716
ht	-4717
▁횡	-4718
▁시작된	-4719
▁주어진	-4720
함과	-4721
38	-4722
게는	-4723
체스터	-4724
▁가문의	-4725
라며	-4726
론이	-4727
영의	-4728
▁극장	-4729
▁나타난다	-4730
하였다고	-4731
▁방정	-4732
시리즈	-4733
▁올랐	-4734
▁1947	-4735
▁특이	-4736
▁훌	-4737
▁나타내	-4738
판이	-4739
우의	-4740
▁테러	-4741
▁활동했다	-4742
▁병합	-4743
조직	-4744
화한	-4745
▁해당한다	-4746
▁화물	-4747
▁중학교이다	-4748
부인	-4749
▁일치	-4750
▁거두었다	-4751
▁바뀌었다	-4752
▁훗	-4753
▁내용은	-4754
▁나뉜다	-4755
호선	-4756
계획	-4757
▁길을	-4758
▁프로그래	-4759
▁기울	-4760
▁지은	-4761
▁발매된	-4762
▁예비	-4763
▁역으로	-4764
▁헤르	-4765
▁저서	-4766
▁설치된	-4767
▁부대	-4768
▁테이	-4769
▁작업을	-4770
22	-4771
▁th	-4772
리그의	-4773
▁프리미어	-4774
지컬	-4775
▁트랙	-4776
▁세계의	-4777
▁근본	-4778
▁바깥	-4779
▁금메달을	-4780
평균	-4781
▁영업	-4782
▁사람들의	-4783
▁한나라	-4784
▁상품	-4785
화되었다	-4786
에른	-4787
▁쳐	-4788
마을	-4789
▁법정	-4790
▁브루	-4791
▁재배	-4792
▁임금	-4793
▁섞	-4794
▁차트	-4795
▁감독이	-4796
포를	-4797
▁부분을	-4798
▁3,	-4799
▁인구가	-4800
산시	-4801
실의	-4802
▁접한다	-4803
▁탈락	-4804
▁kbo	-4805
터의	-4806
▁본선	-4807
▁카르	-4808
▁있음을	-4809
▁명을	-4810
▁포함하여	-4811
▁보안	-4812
▁대법	-4813
▁발견되었다	-4814
▁지켜	-4815
▁세력을	-4816
▁까	-4817
▁레드	-4818
바라	-4819
▁ap	-4820
▁at	-4821
▁이름의	-4822
고의	-4823
▁메인	-4824
▁예수	-4825
▁스페인의	-4826
▁저술	-4827
75	-4828
▁준다	-4829
▁통산	-4830
레는	-4831
▁도모	-4832
▁베이스	-4833
▁킹	-4834
▁않게	-4835
리나	-4836
호에	-4837
▁아스	-4838
▁제작한	-4839
▁무시	-4840
▁수영	-4841
▁시작한다	-4842
들로부터	-4843
어이다	-4844
▁추천	-4845
▁re	-4846
▁위반	-4847
▁박정희	-4848
리히	-4849
인도	-4850
▁완료	-4851
▁sp	-4852
하지는	-4853
▁학위를	-4854
▁단지	-4855
▁아이돌	-4856
▁이들을	-4857
▁미야	-4858
▁지역으로	-4859
스럽게	-4860
▁장관	-4861
▁샤를	-4862
▁학술	-4863
자들에게	-4864
▁마무	-4865
▁무너	-4866
▁사냥	-4867
▁다스	-4868
_6	-4869
▁다르게	-4870
▁희생	-4871
타르	-4872
▁아시안	-4873
공사	-4874
▁치러	-4875
사무	-4876
▁단백	-4877
▁중인	-4878
▁일으키	-4879
46	-4880
▁적절	-4881
▁추기	-4882
▁가진다	-4883
▁새롭게	-4884
▁여러가지	-4885
명과	-4886
▁훗날	-4887
천시	-4888
파를	-4889
▁정지	-4890
법으로	-4891
▁뜻으로	-4892
▁자리잡	-4893
포르	-4894
the	-4895
그라	-4896
▁보관	-4897
▁올림픽에	-4898
▁한국어	-4899
▁바이에른	-4900
▁도요	-4901
▁개입	-4902
▁부상을	-4903
▁앞에서	-4904
▁48	-4905
▁등판	-4906
▁연대	-4907
▁어려운	-4908
▁군인	-4909
▁사임	-4910
▁앉	-4911
▁확률	-4912
▁안에서	-4913
▁가스	-4914
문제	-4915
츠는	-4916
▁코드	-4917
▁다음의	-4918
체와	-4919
▁처벌	-4920
▁계통	-4921
▁메시	-4922
vd	-4923
▁이시	-4924
>,	-4925
▁래	-4926
에만	-4927
▁소방	-4928
▁사마	-4929
▁성적을	-4930
▁대부분이	-4931
▁독특한	-4932
뮤니	-4933
▁고유	-4934
로와	-4935
질의	-4936
▁맡은	-4937
art	-4938
▁갔	-4939
키가	-4940
▁일정한	-4941
양의	-4942
▁레오	-4943
▁후계	-4944
▁입장을	-4945
관에서	-4946
국제	-4947
▁개칭	-4948
▁속한	-4949
▁인종	-4950
▁특정한	-4951
▁어린이	-4952
▁이름이다	-4953
▁유일하게	-4954
▁얻은	-4955
▁영웅	-4956
▁포도	-4957
▁반란을	-4958
▁촌	-4959
자료	-4960
질랜드	-4961
▁그래픽	-4962
▁릴	-4963
터리	-4964
별로	-4965
재로	-4966
▁기회를	-4967
▁로버트	-4968
▁바라	-4969
▁스티	-4970
▁변화를	-4971
▁1956	-4972
▁행위	-4973
하므로	-4974
▁상위	-4975
루를	-4976
▁변경되었다	-4977
▁고문	-4978
▁시카	-4979
▁나왔다	-4980
▁주에서	-4981
▁뜨	-4982
▁황금	-4983
▁공연을	-4984
▁히틀	-4985
층의	-4986
▁개설	-4987
▁들고	-4988
▁통상	-4989
▁설득	-4990
▁정기	-4991
▁규모의	-4992
▁감독으로	-4993
목에	-4994
사이트	-4995
색으로	-4996
ct	-4997
무부	-4998
▁소장	-4999
격한	-5000
▁발굴	-5001
32	-5002
▁올림픽에서	-5003
▁힙	-5004
▁사용된	-5005
▁스카	-5006
▁묵	-5007
석의	-5008
되는데	-5009
메리	-5010
▁형사	-5011
▁지위를	-5012
▁초기의	-5013
▁뮌	-5014
▁맞아	-5015
▁동안에	-5016
▁상태로	-5017
76	-5018
▁올렸다	-5019
▁어깨	-5020
▁사법	-5021
▁상당한	-5022
▁시나	-5023
▁혼합	-5024
▁1942	-5025
▁단편	-5026
▁팽	-5027
▁이혼	-5028
▁하위	-5029
▁1910	-5030
함이	-5031
▁그렇게	-5032
로마	-5033
▁곡을	-5034
▁따로	-5035
▁벌어	-5036
▁주최	-5037
▁나누어	-5038
례를	-5039
왜란	-5040
▁있었기	-5041
▁조절	-5042
▁이로써	-5043
고가	-5044
▁듣고	-5045
▁루마	-5046
▁보낸	-5047
▁평안	-5048
▁유럽의	-5049
▁1958	-5050
▁하에	-5051
▁나고	-5052
▁엠	-5053
로나	-5054
▁철수	-5055
▁상황에서	-5056
▁역사적	-5057
▁엄청난	-5058
누스	-5059
안이	-5060
▁빅토	-5061
▁만들고	-5062
히고	-5063
▁몰아	-5064
▁영상	-5065
▁이기	-5066
▁지시	-5067
▁감독을	-5068
▁벌어진	-5069
▁김정	-5070
▁추구	-5071
if	-5072
▁닛	-5073
었기	-5074
▁가나	-5075
▁연관	-5076
▁조종	-5077
▁콤	-5078
왕을	-5079
▁정치인이다	-5080
목을	-5081
▁발탁	-5082
▁상대적으로	-5083
...	-5084
▁장남	-5085
▁체제	-5086
▁지구의	-5087
▁왕이	-5088
▁헝가리	-5089
한의	-5090
▁성의	-5091
▁종사	-5092
▁1943	-5093
프랑	-5094
▁어디	-5095
▁와이	-5096
▁사업을	-5097
▁빙	-5098
야의	-5099
▁제일	-5100
▁지금은	-5101
▁멀리	-5102
▁분명	-5103
토는	-5104
▁탈퇴	-5105
▁1954	-5106
og	-5107
▁김대	-5108
▁일컫	-5109
▁이른다	-5110
▁주택	-5111
학교를	-5112
▁임진왜란	-5113
▁나아가	-5114
데이	-5115
▁대체로	-5116
96	-5117
학자이다	-5118
▁부담	-5119
▁취소	-5120
▁경제적	-5121
▁받았으며	-5122
▁조선시대	-5123
▁기둥	-5124
▁해도	-5125
▁내렸다	-5126
▁되는데	-5127
족이	-5128
▁니시	-5129
▁운영하고	-5130
▁on	-5131
▁간행	-5132
다란	-5133
앤젤	-5134
▁존재하지	-5135
▁비롯하여	-5136
주고	-5137
▁얻을	-5138
▁도시의	-5139
▁지니고	-5140
비로	-5141
▁it	-5142
▁개조	-5143
▁스탠	-5144
▁1952	-5145
▁시리즈의	-5146
▁아르헨티나	-5147
▁상을	-5148
▁아라	-5149
전에서는	-5150
▁의혹	-5151
▁집권	-5152
정치	-5153
▁자극	-5154
▁그레이	-5155
기록	-5156
▁텍사	-5157
가타	-5158
▁su	-5159
▁갖추고	-5160
▁메이지	-5161
어야	-5162
▁위성	-5163
▁속해	-5164
▁장치	-5165
▁그리하여	-5166
▁남쪽으로	-5167
▁사용하였다	-5168
▁구에	-5169
▁캔	-5170
무늬	-5171
▁선거에서	-5172
▁시는	-5173
▁미드필	-5174
▁1914	-5175
▁다수	-5176
▁승려	-5177
▁해야	-5178
▁민주당	-5179
▁절반	-5180
▁돕	-5181
▁소련의	-5182
되었다고	-5183
라에	-5184
▁소멸	-5185
▁사람들을	-5186
▁행동을	-5187
점의	-5188
▁보유하고	-5189
▁연예	-5190
▁유한	-5191
▁돌아와	-5192
개혁	-5193
▁인권	-5194
주의적	-5195
▁160	-5196
▁후기	-5197
▁장교	-5198
론에	-5199
▁편이다	-5200
▁뉴질랜드	-5201
▁코미디	-5202
▁작품으로	-5203
▁보았다	-5204
▁터미널	-5205
▁나타나는	-5206
▁나들	-5207
▁대리	-5208
▁로스앤젤	-5209
▁소속으로	-5210
31	-5211
▁재건	-5212
▁단위	-5213
▁드라이	-5214
▁제공하는	-5215
▁곳으로	-5216
▁정차	-5217
34	-5218
키의	-5219
▁덧붙	-5220
▁피아노	-5221
▁자리에	-5222
▁전쟁에	-5223
▁춤	-5224
치지	-5225
정과	-5226
▁현상	-5227
▁필요가	-5228
86	-5229
▁미국과	-5230
▁대한민국에서	-5231
▁전직	-5232
우가	-5233
▁뛰고	-5234
▁인쇄	-5235
▁백제	-5236
파가	-5237
▁전형	-5238
▁사건은	-5239
▁끝내	-5240
▁시위	-5241
▁다소	-5242
시험	-5243
▁가게	-5244
▁그로	-5245
▁제공한다	-5246
▁행렬	-5247
▁십자	-5248
▁사실이	-5249
▁시인	-5250
▁미드필더	-5251
▁일어났다	-5252
속에	-5253
▁스미	-5254
iv	-5255
박물	-5256
학에	-5257
▁왕의	-5258
▁원소	-5259
▁구입	-5260
▁노래를	-5261
▁혐의로	-5262
▁아름다운	-5263
▁벗어나	-5264
▁속의	-5265
츠의	-5266
▁무한	-5267
▁알바	-5268
▁켈	-5269
유가	-5270
▁an	-5271
관계	-5272
▁점이	-5273
▁필요하다	-5274
29	-5275
▁작곡가	-5276
▁매일	-5277
▁전까지	-5278
▁시스템을	-5279
▁다케	-5280
▁돈을	-5281
자동차	-5282
▁공화국의	-5283
즈가	-5284
타의	-5285
▁주간	-5286
-4	-5287
▁겹	-5288
▁두려	-5289
▁차이	-5290
▁책임을	-5291
▁적합	-5292
▁후원	-5293
영을	-5294
▁이전에는	-5295
▁수상하였다	-5296
▁유행	-5297
▁활성	-5298
▁기록은	-5299
▁후보로	-5300
활동을	-5301
ba	-5302
▁임대	-5303
▁설립되었다	-5304
▁부진	-5305
들에서	-5306
▁뮤지컬	-5307
▁효과를	-5308
▁이르렀다	-5309
도서	-5310
ul	-5311
느냐	-5312
동생	-5313
▁가와	-5314
▁남겼다	-5315
공을	-5316
▁여섯	-5317
▁120	-5318
▁중화민국	-5319
▁알파	-5320
▁뚜	-5321
▁역사를	-5322
▁서울대학교	-5323
▁음식	-5324
▁자전	-5325
▁진주	-5326
▁상대식	-5327
▁갤	-5328
격으로	-5329
▁지도자	-5330
▁북쪽으로	-5331
▁동해	-5332
▁개신교	-5333
▁않지만	-5334
계약	-5335
▁만다	-5336
인에게	-5337
노는	-5338
▁내용이	-5339
▁중부	-5340
▁세계적으로	-5341
▁크기	-5342
년부터는	-5343
물에	-5344
▁말하는	-5345
▁1936	-5346
▁조카	-5347
ik	-5348
고기	-5349
마를	-5350
▁심지	-5351
▁아이디	-5352
▁일부가	-5353
▁상속	-5354
공의	-5355
▁있었다고	-5356
▁왕조	-5357
▁못하는	-5358
▁창원	-5359
▁부분이	-5360
▁아티	-5361
▁나온다	-5362
루의	-5363
▁굳	-5364
▁톰	-5365
러의	-5366
직에	-5367
크래프트	-5368
우수	-5369
▁공사	-5370
▁검사	-5371
▁선임	-5372
▁일어나는	-5373
▁돼	-5374
▁정권	-5375
▁심각한	-5376
▁위치를	-5377
▁다운	-5378
▁오직	-5379
▁전쟁의	-5380
▁눈에	-5381
▁최대의	-5382
▁출시되었다	-5383
▁현의	-5384
듯이	-5385
었다고	-5386
1,	-5387
▁한일	-5388
▁해상	-5389
▁자이언	-5390
▁프리드리	-5391
하여야	-5392
중을	-5393
▁태양의	-5394
▁발생하는	-5395
▁전쟁에서	-5396
▁참여하였다	-5397
39	-5398
▁=	-5399
▁닌	-5400
주와	-5401
티오	-5402
▁리버	-5403
▁말레이시아	-5404
▁다리	-5405
▁준우	-5406
▁상태에서	-5407
▁이후에도	-5408
슨의	-5409
▁페이	-5410
▁역에서	-5411
항은	-5412
▁끌어	-5413
머스	-5414
네이	-5415
▁레벨	-5416
▁투쟁	-5417
▁곳이다	-5418
강의	-5419
브라	-5420
▁하기도	-5421
▁다다	-5422
▁접촉	-5423
▁조지아	-5424
사람	-5425
▁주연	-5426
▁광복	-5427
▁호는	-5428
▁1918	-5429
▁로봇	-5430
▁지지를	-5431
었을	-5432
유를	-5433
▁격파	-5434
▁트랜	-5435
▁플래	-5436
▁깃	-5437
평가	-5438
▁ar	-5439
▁기다	-5440
▁기병	-5441
▁시가	-5442
▁참여했다	-5443
라이언	-5444
▁차지하고	-5445
비치	-5446
▁타이거	-5447
▁오프	-5448
토리	-5449
토니	-5450
▁1938	-5451
▁64	-5452
▁뮌헨	-5453
▁유학	-5454
천군	-5455
▁싸움	-5456
▁이른바	-5457
▁재학	-5458
▁1937	-5459
▁변형	-5460
▁국민의	-5461
▁임의의	-5462
족은	-5463
▁kt	-5464
▁밀려	-5465
▁1935	-5466
▁대통령의	-5467
▁프린	-5468
소송	-5469
▁신호	-5470
▁전투를	-5471
▁빚	-5472
▁전력	-5473
-5	-5474
▁강을	-5475
▁카드	-5476
▁떠났다	-5477
년도	-5478
▁1955	-5479
오의	-5480
▁성공을	-5481
면과	-5482
처를	-5483
▁궤도	-5484
관이다	-5485
▁질병	-5486
보고	-5487
감독	-5488
만으로	-5489
▁상하이	-5490
▁1953	-5491
▁특징이다	-5492
비에	-5493
▁내놓	-5494
련의	-5495
▁lo	-5496
▁구역	-5497
▁유기	-5498
de	-5499
되게	-5500
로서는	-5501
▁프라	-5502
▁1959	-5503
산화	-5504
▁연구에	-5505
▁완전한	-5506
▁서쪽으로	-5507
97	-5508
서와	-5509
▁어머니는	-5510
▁여겨진다	-5511
▁갑자기	-5512
▁다음날	-5513
월의	-5514
스트로	-5515
▁정교	-5516
▁목록이다	-5517
마르	-5518
행정	-5519
▁않으면	-5520
ly	-5521
우주	-5522
▁천주교	-5523
▁세상을	-5524
▁단계	-5525
▁특성	-5526
▁wwe	-5527
▁프랑크	-5528
▁대통령은	-5529
▁독립을	-5530
▁커뮤니	-5531
▁선전	-5532
실이	-5533
아이	-5534
▁전송	-5535
▁이적하였다	-5536
▁ne	-5537
▁개찰	-5538
▁sc	-5539
▁브레	-5540
▁저녁	-5541
▁전부	-5542
무네	-5543
▁싸우	-5544
▁아들인	-5545
▁안드로	-5546
▁연습	-5547
▁프로토	-5548
▁돌려	-5549
▁비상	-5550
▁권력을	-5551
즈를	-5552
▁위로	-5553
94	-5554
▁쓰여	-5555
▁나들목	-5556
오스	-5557
청은	-5558
▁내세	-5559
시스	-5560
▁분노	-5561
▁세웠	-5562
▁유효	-5563
▁번주	-5564
사이다	-5565
▁나타낸다	-5566
▁동쪽으로	-5567
문이다	-5568
▁주장을	-5569
▁불렸다	-5570
▁연평균	-5571
▁폐쇄	-5572
▁사망한	-5573
▁드래프트	-5574
판은	-5575
▁바닥	-5576
▁쿠데	-5577
▁호소	-5578
화에서	-5579
평을	-5580
▁중추	-5581
▁게다가	-5582
▁미국은	-5583
우를	-5584
▁의심	-5585
▁진행되었다	-5586
▁일시	-5587
▁쾌	-5588
슬러	-5589
▁게임을	-5590
▁제작된	-5591
▁부분은	-5592
미니	-5593
▁선박	-5594
▁힙합	-5595
▁말이	-5596
▁명령을	-5597
▁없을	-5598
▁챔피언십	-5599
▁동북	-5600
▁하여금	-5601
▁인천광역시	-5602
관광	-5603
▁리처	-5604
했다가	-5605
속의	-5606
▁학살	-5607
되어야	-5608
▁무사	-5609
▁승객	-5610
부대	-5611
▁가치가	-5612
▁노출	-5613
▁첼	-5614
▁녹색	-5615
▁즉시	-5616
▁파르	-5617
▁개국	-5618
▁달려	-5619
인들을	-5620
▁일으켜	-5621
▁네이	-5622
▁유배	-5623
▁나라의	-5624
▁웅	-5625
85	-5626
▁창작	-5627
▁me	-5628
▁꾸준	-5629
군에게	-5630
▁들어갔다	-5631
▁영화는	-5632
▁사건으로	-5633
▁골든	-5634
▁양쪽	-5635
▁논문	-5636
▁동방	-5637
학자들은	-5638
▁dvd	-5639
▁만든다	-5640
▁사용자	-5641
받는	-5642
클레	-5643
▁문제는	-5644
탄을	-5645
▁패션	-5646
▁대상이	-5647
▁조건을	-5648
▁한자	-5649
▁초기에	-5650
pa	-5651
차의	-5652
▁없게	-5653
▁도덕	-5654
▁라이트	-5655
티는	-5656
퍼드	-5657
자키	-5658
민의	-5659
▁탄압	-5660
▁최근에는	-5661
▁되돌	-5662
▁수의	-5663
동맹	-5664
▁이들이	-5665
▁배포	-5666
▁표면	-5667
▁샘	-5668
▁윤치	-5669
▁잠수	-5670
분으로	-5671
층에	-5672
▁공중	-5673
▁무게	-5674
▁사퇴	-5675
▁인지	-5676
사관	-5677
위와	-5678
▁만한	-5679
▁유형문화재	-5680
르기	-5681
▁곡은	-5682
▁느낌	-5683
▁동양	-5684
▁마르크	-5685
▁sh	-5686
▁아미	-5687
64	-5688
▁똑	-5689
▁운영하는	-5690
만한	-5691
▁양의	-5692
▁홍보	-5693
사전	-5694
▁완벽	-5695
▁제이	-5696
야는	-5697
▁추방	-5698
▁교향	-5699
▁권리를	-5700
▁이명	-5701
▁화산	-5702
▁구성하는	-5703
▁곽	-5704
▁브라운	-5705
▁따서	-5706
았으나	-5707
lu	-5708
▁입고	-5709
열을	-5710
환을	-5711
▁클레	-5712
▁포항	-5713
▁이상이	-5714
▁사우	-5715
소설	-5716
▁am	-5717
▁항의	-5718
▁홋카이도	-5719
모가	-5720
타로	-5721
▁재개	-5722
▁남아프리카	-5723
▁대장	-5724
▁그것이	-5725
▁업무를	-5726
▁1957	-5727
▁맞서	-5728
▁장수	-5729
se	-5730
▁닫	-5731
다의	-5732
포로	-5733
▁인용	-5734
▁걸친	-5735
▁임무	-5736
▁통계	-5737
▁전면	-5738
타운	-5739
▁초에	-5740
▁크다	-5741
▁화려	-5742
▁데이비드	-5743
▁분야에서	-5744
▁발언	-5745
▁순간	-5746
▁긍	-5747
파로	-5748
▁노르웨이	-5749
▁싱가	-5750
▁소식을	-5751
▁데에	-5752
▁물을	-5753
▁재능	-5754
▁노선을	-5755
▁문제에	-5756
▁이루는	-5757
▁윗	-5758
마가	-5759
드레	-5760
▁65	-5761
▁그리스의	-5762
▁관여	-5763
▁김성	-5764
▁히로시마	-5765
▁로마의	-5766
▁원인이	-5767
▁책을	-5768
▁근처에	-5769
▁상황을	-5770
▁역임하였다	-5771
비디오	-5772
▁관련이	-5773
▁발간	-5774
▁복원	-5775
단이다	-5776
호와	-5777
▁개체	-5778
▁갖는다	-5779
름이	-5780
카가	-5781
집을	-5782
▁열차가	-5783
▁받아들이	-5784
야구	-5785
렸으며	-5786
▁뻗	-5787
▁복잡한	-5788
▁맨체스터	-5789
▁있으므로	-5790
보살	-5791
▁명칭을	-5792
▁기본적으로	-5793
▁높다	-5794
▁선포	-5795
▁마무리	-5796
감이	-5797
▁사운드	-5798
▁몸을	-5799
렬한	-5800
▁단순한	-5801
▁방식을	-5802
요시	-5803
▁선출되었다	-5804
▁까지	-5805
▁남극	-5806
▁칠레	-5807
▁연결되어	-5808
▁보험	-5809
베리아	-5810
현은	-5811
▁가슴	-5812
▁해리	-5813
▁유치	-5814
▁좋지	-5815
▁방해	-5816
중이다	-5817
대장	-5818
▁방법은	-5819
▁아래와	-5820
▁소프트웨	-5821
▁크로아	-5822
▁타격	-5823
▁당시에	-5824
33	-5825
입니다	-5826
계와	-5827
▁dna	-5828
▁짜	-5829
▁조별	-5830
▁사용했다	-5831
ds	-5832
형에	-5833
▁고위	-5834
▁국도	-5835
▁주력	-5836
▁나왔	-5837
▁1933	-5838
▁시상	-5839
▁외국인	-5840
▁그곳에서	-5841
씨를	-5842
자유	-5843
▁그들을	-5844
▁권력	-5845
스트를	-5846
▁쓰러	-5847
▁아버지의	-5848
리며	-5849
▁후인	-5850
89	-5851
▁주장한다	-5852
부장	-5853
▁스키	-5854
▁섬에	-5855
▁재임	-5856
65	-5857
▁성직	-5858
과대학	-5859
▁제도를	-5860
한국	-5861
▁되기	-5862
▁오다	-5863
▁벡터	-5864
▁체육	-5865
▁방영된	-5866
▁수요	-5867
인인	-5868
▁블라	-5869
▁발음	-5870
▁고속도로	-5871
▁선생	-5872
▁행정구역이다	-5873
▁서서	-5874
▁보스	-5875
▁겉	-5876
이닝	-5877
텐츠	-5878
▁루트	-5879
▁상실	-5880
▁스마트	-5881
목으로	-5882
린의	-5883
우스는	-5884
▁본격적으로	-5885
▁남아있	-5886
▁스케	-5887
▁기록되어	-5888
▁도쿠가와	-5889
▁의미하는	-5890
이상	-5891
▁서술	-5892
▁세부	-5893
▁캐나다의	-5894
성군	-5895
어에	-5896
▁1932	-5897
카의	-5898
▁수백	-5899
▁기록하며	-5900
▁개척	-5901
▁함경	-5902
▁동일본	-5903
▁형식으로	-5904
하를	-5905
▁이외의	-5906
▁가깝	-5907
▁게임의	-5908
어버	-5909
▁이라크	-5910
용의	-5911
투아	-5912
▁작동	-5913
▁프리드리히	-5914
역과	-5915
▁미사일	-5916
▁사람들에게	-5917
▁들면	-5918
사단	-5919
투스	-5920
▁경기가	-5921
▁나뉘어	-5922
트릭	-5923
▁1928	-5924
로써	-5925
가인	-5926
▁방지	-5927
▁주기	-5928
위에서	-5929
▁파워	-5930
▁미리	-5931
비스	-5932
생물	-5933
용을	-5934
▁장비	-5935
▁직전	-5936
▁후임	-5937
pu	-5938
▁레알	-5939
▁명나라	-5940
▁방송을	-5941
혁명	-5942
▁47	-5943
▁한성	-5944
환으로	-5945
되지만	-5946
에이	-5947
타마	-5948
▁중성	-5949
모는	-5950
▁교회의	-5951
▁1924	-5952
ive	-5953
▁복무	-5954
▁시를	-5955
▁참가한	-5956
바는	-5957
▁곱	-5958
▁해발	-5959
▁1900	-5960
▁밝혀졌다	-5961
됨에	-5962
조건	-5963
중인	-5964
▁손을	-5965
▁픽	-5966
주의는	-5967
▁화장	-5968
▁별도의	-5969
▁했는데	-5970
▁가수이다	-5971
구치	-5972
▁대량	-5973
▁위상	-5974
▁능력	-5975
▁입력	-5976
▁희망	-5977
▁그러므로	-5978
▁이끌었다	-5979
▁고종	-5980
▁개념을	-5981
▁디스크	-5982
국과	-5983
▁로드	-5984
▁후쿠오카	-5985
ta	-5986
▁가치	-5987
▁터널	-5988
▁그녀가	-5989
▁특징을	-5990
▁가까이	-5991
강에	-5992
▁찰스	-5993
슬링	-5994
양이	-5995
▁개별	-5996
비트	-5997
▁소속의	-5998
기인	-5999
▁동성애	-6000
▁영토를	-6001
▁수리	-6002
▁텍사스	-6003
▁포켓몬스터	-6004
▁의학	-6005
코의	-6006
▁39	-6007
메리칸	-6008
▁추가로	-6009
어에서	-6010
▁그려져	-6011
재가	-6012
토를	-6013
운동을	-6014
▁시카고	-6015
▁민법	-6016
▁위에서	-6017
고등학교는	-6018
▁문을	-6019
▁사랑을	-6020
▁가상	-6021
▁지향	-6022
▁보물	-6023
▁비잔	-6024
▁자랑	-6025
▁일으켰다	-6026
속은	-6027
하기를	-6028
▁고급	-6029
발을	-6030
조차	-6031
프와	-6032
▁연료	-6033
▁토지	-6034
▁하느	-6035
▁커다란	-6036
▁미국으로	-6037
▁아버지가	-6038
중한	-6039
▁우수	-6040
▁대부분을	-6041
니스탄	-6042
▁오페라	-6043
쥐는	-6044
▁북아메리카	-6045
▁더블	-6046
왕후	-6047
▁도전	-6048
▁se	-6049
▁진학	-6050
▁늑	-6051
령의	-6052
▁수십	-6053
친다	-6054
▁임무를	-6055
였는데	-6056
▁보여준다	-6057
▁가난	-6058
▁가이	-6059
▁갖게	-6060
▁교류	-6061
▁밝은	-6062
▁수석	-6063
작으로	-6064
▁되기도	-6065
▁부르기도	-6066
▁현존	-6067
▁대표로	-6068
▁초기에는	-6069
▁jr	-6070
▁참가했다	-6071
▁이외에도	-6072
▁미쓰	-6073
▁정부에	-6074
▁발표된	-6075
▁인기가	-6076
너는	-6077
▁대다	-6078
▁회장	-6079
▁연간	-6080
▁단순히	-6081
▁신체	-6082
▁의식	-6083
▁질량	-6084
▁특별히	-6085
드라	-6086
▁as	-6087
▁다이묘	-6088
▁마음을	-6089
▁강등	-6090
▁확산	-6091
▁분기	-6092
▁1934	-6093
실로	-6094
▁나타났다	-6095
▁즈	-6096
▁참여한	-6097
▁언덕	-6098
거래	-6099
▁46	-6100
파와	-6101
ine	-6102
▁알고리즘	-6103
천만	-6104
코스	-6105
하시	-6106
▁말로	-6107
아서	-6108
ess	-6109
▁군은	-6110
▁멸종	-6111
▁탄핵	-6112
▁일종의	-6113
▁기소	-6114
▁파트	-6115
▁퀸	-6116
▁벼슬	-6117
▁부친	-6118
에서만	-6119
_7	-6120
ps	-6121
and	-6122
▁청구	-6123
▁나고야	-6124
▁앞으로	-6125
▁힌	-6126
로에	-6127
▁김종	-6128
▁매주	-6129
▁유통	-6130
▁홈런을	-6131
▁세계대전	-6132
▁42	-6133
▁os	-6134
▁충분히	-6135
▁포함되었다	-6136
▁안동	-6137
▁탐사	-6138
▁대학의	-6139
보호	-6140
▁이웃	-6141
▁지진	-6142
▁사회의	-6143
이게	-6144
서양	-6145
▁보이지	-6146
해에	-6147
▁상태를	-6148
▁왕조의	-6149
▁계속해서	-6150
름은	-6151
▁개량	-6152
의가	-6153
▁ss	-6154
▁이벤	-6155
▁죽음을	-6156
스트는	-6157
하기에	-6158
▁조선시대의	-6159
▁대회에	-6160
쿠스	-6161
▁게임이다	-6162
▁노스	-6163
조참	-6164
▁후에도	-6165
니와	-6166
판에	-6167
▁당나라	-6168
▁사우스	-6169
lo	-6170
te	-6171
곡은	-6172
▁상관	-6173
법인	-6174
▁개방	-6175
신인	-6176
▁살인	-6177
▁코르	-6178
▁흑인	-6179
크와	-6180
르를	-6181
▁크레	-6182
법과	-6183
▁타율	-6184
▁구매	-6185
▁대동	-6186
▁성남	-6187
▁소집	-6188
▁실천	-6189
▁일은	-6190
년까지는	-6191
오로	-6192
▁티베	-6193
▁열리는	-6194
▁멈	-6195
지면	-6196
▁북극	-6197
▁수술	-6198
▁화성	-6199
질은	-6200
▁광범	-6201
▁일단	-6202
공산	-6203
▁틈	-6204
▁미국에	-6205
▁배경으로	-6206
▁주장하는	-6207
▁빌보드	-6208
▁전작	-6209
시스코	-6210
▁올스타	-6211
▁이상을	-6212
과정	-6213
▁남녀	-6214
▁지속적으로	-6215
▁tr	-6216
87	-6217
▁발휘	-6218
▁석유	-6219
▁불가리아	-6220
후에	-6221
▁강남	-6222
▁대의	-6223
▁민중	-6224
▁서구	-6225
▁리이다	-6226
▁원래는	-6227
▁프로듀서	-6228
▁진격	-6229
주의자	-6230
▁히트	-6231
▁넣어	-6232
▁비트	-6233
▁맺고	-6234
▁부르고	-6235
▁핑	-6236
권과	-6237
▁비례	-6238
▁징역	-6239
▁루마니아	-6240
▁대결	-6241
▁암컷	-6242
▁자금	-6243
▁자원	-6244
▁장소	-6245
공간	-6246
▁붙어	-6247
▁정식으로	-6248
▁츠	-6249
▁부동	-6250
▁돌아온	-6251
내의	-6252
▁지리	-6253
▁포함하는	-6254
▁로스앤젤레스	-6255
▁요코하마	-6256
디는	-6257
▁크리	-6258
▁이용할	-6259
▁아래에	-6260
▁쌀	-6261
▁44	-6262
▁스탈	-6263
▁지중	-6264
▁집필	-6265
▁도시는	-6266
특별자치	-6267
▁뮤직비디오	-6268
▁농구	-6269
▁바르셀	-6270
방향	-6271
▁멀티	-6272
바일	-6273
▁놓여	-6274
▁내셔널	-6275
▁1951	-6276
44	-6277
리안	-6278
▁철거	-6279
▁캠퍼	-6280
▁앵	-6281
앨범	-6282
bm	-6283
▁+	-6284
▁신의	-6285
▁원시	-6286
▁대원	-6287
▁구사	-6288
는지	-6289
▁권리	-6290
.'	-6291
대문	-6292
페르	-6293
독립	-6294
▁가속	-6295
▁긍정	-6296
▁현급	-6297
▁훌륭	-6298
▁유력	-6299
▁역사가	-6300
계열	-6301
▁sm	-6302
3,	-6303
▁거짓	-6304
▁현지	-6305
▁개인의	-6306
하라는	-6307
▁줄어들	-6308
행성	-6309
힌다	-6310
당으로	-6311
라면	-6312
▁시드	-6313
보로	-6314
키퍼	-6315
▁물려	-6316
▁성과	-6317
같이	-6318
▁비판을	-6319
▁1925	-6320
군에서	-6321
▁con	-6322
▁여성의	-6323
▁영향으로	-6324
원숭	-6325
▁죽자	-6326
▁일본은	-6327
▁유나이티드	-6328
래의	-6329
치오	-6330
▁이어서	-6331
함은	-6332
▁웨일	-6333
▁드래	-6334
▁혼자	-6335
▁오는	-6336
▁타입	-6337
▁적극적으로	-6338
100	-6339
▁사찰	-6340
▁집에	-6341
▁정체	-6342
등급	-6343
침을	-6344
▁프로그래밍	-6345
▁하나가	-6346
▁구멍	-6347
▁낸	-6348
▁시사	-6349
▁고등학교이다	-6350
단에서	-6351
-20	-6352
▁인상	-6353
령으로	-6354
▁전동차	-6355
▁생기	-6356
▁후퇴	-6357
아나	-6358
되거나	-6359
▁이론을	-6360
ard	-6361
▁반대하는	-6362
▁강요	-6363
스팅	-6364
▁속도	-6365
가락	-6366
▁오키	-6367
▁전화	-6368
▁측면	-6369
행이	-6370
▁오카	-6371
▁좁은	-6372
희는	-6373
▁재산	-6374
88	-6375
가시	-6376
▁직원	-6377
ge	-6378
스피	-6379
▁행위를	-6380
년경	-6381
▁상하	-6382
관계를	-6383
시대에	-6384
▁무대	-6385
▁할아버	-6386
▁디스	-6387
▁보스턴	-6388
▁넥	-6389
▁랩	-6390
물과	-6391
임은	-6392
▁군사를	-6393
▁마크	-6394
▁보냈	-6395
타가	-6396
▁고객	-6397
▁담고	-6398
▁말해	-6399
▁시조	-6400
▁적도	-6401
보다도	-6402
▁현상을	-6403
▁차지하였다	-6404
▁1921	-6405
▁|	-6406
▁덩	-6407
강을	-6408
비히	-6409
▁지칭	-6410
▁허락	-6411
▁위치에	-6412
▁비공	-6413
▁이념	-6414
▁참가하였다	-6415
▁국정	-6416
▁주된	-6417
▁드물	-6418
▁입법	-6419
▁웃	-6420
▁서울시	-6421
▁란	-6422
▁골키퍼	-6423
▁큐	-6424
에서부터	-6425
▁이익	-6426
▁집안	-6427
▁콜롬	-6428
▁하던	-6429
▁이끌어	-6430
천의	-6431
▁토벌	-6432
▁많았다	-6433
odice	-6434
▁아오	-6435
▁보여주는	-6436
결승	-6437
▁1931	-6438
▁열매	-6439
▁회사의	-6440
▁콘스탄티노	-6441
▁발전을	-6442
▁보이고	-6443
▁화이트	-6444
▁부속	-6445
▁군대	-6446
▁최우수	-6447
▁접하고	-6448
▁단선	-6449
▁전문가	-6450
▁입장	-6451
▁afc	-6452
▁탓	-6453
▁생태	-6454
▁세리에	-6455
▁앨범을	-6456
▁되었는데	-6457
중이	-6458
▁구로	-6459
▁세력이	-6460
▁주변의	-6461
청의	-6462
▁1929	-6463
▁일상	-6464
리우스	-6465
▁거리에	-6466
정도	-6467
▁뚜렷	-6468
▁대학교의	-6469
▁마주	-6470
▁1923	-6471
토가	-6472
▁일련의	-6473
위원회가	-6474
▁ac	-6475
▁수를	-6476
▁전투는	-6477
▁hd	-6478
나를	-6479
가능	-6480
▁잡고	-6481
하에서	-6482
▁나타난	-6483
ii	-6484
보험	-6485
▁본다	-6486
▁코치	-6487
식에서	-6488
대신	-6489
설이	-6490
▁에드워드	-6491
▁순환	-6492
문과	-6493
▁혼인	-6494
▁세계를	-6495
▁조선민주주의인민공화국의	-6496
오고	-6497
▁결의	-6498
▁이온	-6499
▁검색	-6500
▁목숨	-6501
테이	-6502
▁감시	-6503
한다면	-6504
조와	-6505
▁예로	-6506
당에서	-6507
▁이어지는	-6508
▁사전	-6509
▁이은	-6510
▁철저	-6511
▁하와	-6512
▁작품의	-6513
▁내가	-6514
당하고	-6515
▁스프	-6516
▁상태가	-6517
▁지불	-6518
▁부상으로	-6519
▁당사	-6520
▁베어	-6521
데르	-6522
러가	-6523
아르	-6524
▁마케도	-6525
▁남아메리카	-6526
▁공주	-6527
▁입은	-6528
▁팔레	-6529
먼트	-6530
즈와	-6531
▁감독은	-6532
민족행위	-6533
▁보편	-6534
▁카운	-6535
▁신학	-6536
▁우에	-6537
▁1912	-6538
▁영향력을	-6539
법인이다	-6540
폴리	-6541
▁모토	-6542
▁안내	-6543
해는	-6544
▁코믹	-6545
▁com	-6546
▁정확히	-6547
모의	-6548
▁ms	-6549
▁구글	-6550
▁상주	-6551
▁화가	-6552
▁사건에	-6553
▁주목을	-6554
▁시작했고	-6555
▁예전	-6556
제도	-6557
▁감옥	-6558
▁기도	-6559
▁승부	-6560
▁편의	-6561
▁살아남	-6562
바의	-6563
▁관계에	-6564
치기	-6565
▁사건의	-6566
our	-6567
▁에르	-6568
그램	-6569
민은	-6570
클리	-6571
▁천안	-6572
▁화합	-6573
▁메달	-6574
▁800	-6575
▁맺었다	-6576
▁리그에서	-6577
▁드라마이다	-6578
▁롱	-6579
▁경향이	-6580
대원	-6581
티움	-6582
▁마감	-6583
▁수컷	-6584
▁수호	-6585
▁1922	-6586
펙트	-6587
▁가마	-6588
▁발매한	-6589
▁서쪽으로는	-6590
연대	-6591
이면	-6592
▁가끔	-6593
▁노무	-6594
▁백성	-6595
▁강수	-6596
▁대칭	-6597
▁사막	-6598
▁성향	-6599
▁클라	-6600
다시	-6601
▁가고	-6602
▁불렀	-6603
▁동쪽으로는	-6604
자베	-6605
▁땅을	-6606
▁정통	-6607
▁초청	-6608
▁광범위	-6609
슬로	-6610
▁운동에	-6611
▁복음	-6612
▁점성	-6613
▁풋	-6614
▁영구	-6615
▁정도이다	-6616
담을	-6617
▁어두	-6618
자이자	-6619
편의	-6620
▁사도	-6621
▁섬식	-6622
인가	-6623
피스	-6624
▁손에	-6625
▁유고	-6626
체이다	-6627
▁관계는	-6628
▁단행	-6629
미르	-6630
▁닮	-6631
▁소화	-6632
본은	-6633
▁600	-6634
절을	-6635
▁강하게	-6636
▁전형적인	-6637
▁논리	-6638
▁센트	-6639
ne	-6640
용은	-6641
▁반응을	-6642
▁대해서도	-6643
▁사람이다	-6644
▁연안	-6645
▁영화의	-6646
▁멘	-6647
미술	-6648
비와	-6649
▁nh	-6650
▁대구광역시	-6651
고등	-6652
▁막기	-6653
▁별로	-6654
▁삶을	-6655
공원	-6656
▁중시	-6657
심이	-6658
▁독재	-6659
▁새끼	-6660
차에	-6661
▁인구의	-6662
▁남쪽으로는	-6663
▁짝	-6664
브를	-6665
영이	-6666
▁56	-6667
▁심리	-6668
령은	-6669
▁농촌	-6670
▁본질	-6671
▁아무런	-6672
▁랜	-6673
하면서도	-6674
연의	-6675
▁와서	-6676
▁그레고	-6677
▁의견을	-6678
에선	-6679
▁그만	-6680
▁몬테	-6681
▁사람으로	-6682
▁그라	-6683
▁자라	-6684
▁폭력	-6685
안전	-6686
▁성격을	-6687
▁위대한	-6688
▁입사	-6689
▁170	-6690
건의	-6691
본부	-6692
▁출현	-6693
▁총선	-6694
시스템	-6695
▁노동자	-6696
슨이	-6697
▁오이	-6698
▁집을	-6699
▁힘들	-6700
▁리처드	-6701
▁관해	-6702
▁대대	-6703
▁작사	-6704
았는데	-6705
▁모양으로	-6706
살이	-6707
▁액션	-6708
▁라이온	-6709
▁실제로는	-6710
근혜	-6711
배를	-6712
▁마그	-6713
▁않기	-6714
▁첫째	-6715
▁에너지를	-6716
▁달하는	-6717
▁삼았다	-6718
▁출연했다	-6719
▁분자	-6720
▁끝으로	-6721
▁상황에	-6722
▁일본인	-6723
족을	-6724
▁ex	-6725
▁상호작용	-6726
▁상의	-6727
▁순서	-6728
▁기본적인	-6729
▁주재	-6730
판의	-6731
▁비틀	-6732
▁차지한다	-6733
▁타이틀을	-6734
▁단어	-6735
▁포트	-6736
▁1907	-6737
무장	-6738
▁섬은	-6739
▁서일본	-6740
▁엑스	-6741
▁발표되었다	-6742
▁극복	-6743
▁영역	-6744
환경	-6745
회와	-6746
93	-6747
▁요미	-6748
▁정수	-6749
▁명으로	-6750
▁올라가	-6751
▁1/	-6752
ight	-6753
▁덜	-6754
률을	-6755
▁넷	-6756
▁지방에	-6757
되던	-6758
마에	-6759
ers	-6760
▁싱어	-6761
▁휴대	-6762
▁구성원	-6763
경기에서	-6764
43	-6765
▁획득하였다	-6766
▁앤드	-6767
▁해협	-6768
문으로	-6769
▁인물로	-6770
▁일으킨	-6771
▁전체를	-6772
▁대승	-6773
▁착용	-6774
▁의정부	-6775
▁있다가	-6776
▁중에서도	-6777
▁위키	-6778
▁프랭	-6779
▁개명	-6780
까지도	-6781
▁주요한	-6782
니즘	-6783
▁설립한	-6784
▁텐	-6785
▁""	-6786
▁외계	-6787
애를	-6788
▁모터	-6789
▁핫	-6790
▁북쪽으로는	-6791
▁검토	-6792
▁부탁	-6793
ill	-6794
▁대회는	-6795
▁자매	-6796
▁받으며	-6797
토미	-6798
▁압도	-6799
▁모습이	-6800
▁데이터를	-6801
▁접속	-6802
▁포유	-6803
▁이어져	-6804
▁공기	-6805
▁나이에	-6806
▁사이를	-6807
▁황제의	-6808
▁종로	-6809
▁라이벌	-6810
▁메모리	-6811
브로	-6812
▁이하의	-6813
▁1917	-6814
갔고	-6815
청년	-6816
프란	-6817
▁주도는	-6818
▁1908	-6819
환은	-6820
▁얻게	-6821
▁영혼	-6822
▁4,	-6823
▁fr	-6824
▁빌딩	-6825
▁서명	-6826
▁축소	-6827
41	-6828
리언	-6829
▁용인	-6830
▁활약하고	-6831
42	-6832
▁사다	-6833
▁스웨덴의	-6834
교가	-6835
▁운송	-6836
▁필수	-6837
졌으나	-6838
드러	-6839
류에	-6840
▁환승	-6841
드라마	-6842
▁역사는	-6843
-10	-6844
▁실내	-6845
▁졸업한	-6846
▁1927	-6847
▁감사	-6848
▁관객	-6849
▁그녀를	-6850
▁플로리다	-6851
발전	-6852
▁폴리	-6853
구이다	-6854
세기의	-6855
▁끈	-6856
즈니	-6857
▁교차	-6858
▁레이더	-6859
고에	-6860
파이	-6861
▁새벽	-6862
▁예산	-6863
▁국경을	-6864
▁레지	-6865
았지만	-6866
▁인도의	-6867
▁않았지만	-6868
디움	-6869
▁기상	-6870
▁원하는	-6871
▁전해진다	-6872
받침	-6873
▁사가	-6874
▁옛날	-6875
▁1926	-6876
▁성공했다	-6877
▁영국에서	-6878
대부	-6879
밀한	-6880
율이	-6881
론과	-6882
남도의	-6883
우스의	-6884
주에서	-6885
▁비롯해	-6886
▁웹사이트	-6887
▁he	-6888
든지	-6889
미아	-6890
▁대변	-6891
프가니스탄	-6892
▁남겨	-6893
▁아래의	-6894
▁밥	-6895
▁등도	-6896
▁차단	-6897
노스	-6898
생활을	-6899
▁도중에	-6900
▁이용하는	-6901
▁낱	-6902
말로	-6903
▁삽입	-6904
적이며	-6905
주의와	-6906
▁도시를	-6907
▁있어야	-6908
호쿠	-6909
▁쇠퇴	-6910
▁허가	-6911
▁상태에	-6912
▁처음에	-6913
하였을	-6914
▁명성을	-6915
▁1905	-6916
▁하인	-6917
▁방송된	-6918
나게	-6919
▁아울	-6920
▁소리를	-6921
▁압축	-6922
▁패러	-6923
▁기능이	-6924
▁모바일	-6925
▁톱	-6926
▁재생	-6927
▁정권을	-6928
▁1,000	-6929
▁스타크래프트	-6930
에게도	-6931
▁강릉	-6932
▁무릎	-6933
▁자가	-6934
해지고	-6935
▁무산	-6936
▁자신은	-6937
ab	-6938
▁올해의	-6939
▁해설	-6940
베르트	-6941
▁든	-6942
▁없지만	-6943
▁창간	-6944
금은	-6945
▁고안	-6946
▁규슈	-6947
▁망원	-6948
▁명시	-6949
▁이미지	-6950
▁아동	-6951
▁적응	-6952
이라면	-6953
▁이행	-6954
▁번호는	-6955
국인	-6956
▁대단	-6957
▁동경	-6958
▁알레	-6959
자였던	-6960
▁변호사	-6961
▁사람들	-6962
▁싫	-6963
▁지정되어	-6964
라이터	-6965
▁수밖에	-6966
▁쏘	-6967
▁140	-6968
78	-6969
턴은	-6970
▁말은	-6971
▁박쥐	-6972
▁며	-6973
▁이즈	-6974
▁종이	-6975
▁소리	-6976
지니아	-6977
폴리스	-6978
▁가치를	-6979
▁뜻이다	-6980
▁자체가	-6981
▁!	-6982
방에	-6983
▁꺼	-6984
신과	-6985
주군	-6986
▁양산	-6987
▁국가가	-6988
동물	-6989
전자	-6990
▁계기가	-6991
▁뼈	-6992
▁마법	-6993
▁우리는	-6994
▁그들	-6995
▁인터뷰에서	-6996
▁로렌	-6997
▁일원	-6998
▁콜롬비아	-6999
▁또다른	-7000
▁퀘	-7001
백만	-7002
▁동반	-7003
▁수감	-7004
스트라	-7005
실에서	-7006
였다고	-7007
▁루이스	-7008
령에	-7009
▁mu	-7010
▁카라	-7011
기이다	-7012
▁넘겨	-7013
▁내는	-7014
▁일곱	-7015
▁수준의	-7016
▁전술	-7017
▁교수로	-7018
▁글로벌	-7019
▁코너	-7020
쳤고	-7021
투표	-7022
▁구원	-7023
석으로	-7024
▁원주민	-7025
▁포함된	-7026
▁my	-7027
▁체험	-7028
▁다루는	-7029
▁지역이	-7030
▁행복	-7031
▁대화	-7032
▁튜	-7033
주년	-7034
▁기하	-7035
▁가시	-7036
▁영원	-7037
▁프라이	-7038
로지	-7039
▁담은	-7040
▁건물은	-7041
▁등장인	-7042
▁의미로	-7043
▁맞추	-7044
▁테마	-7045
▁아메리칸	-7046
49	-7047
▁수소	-7048
▁죽고	-7049
피를	-7050
ity	-7051
▁5,	-7052
▁95	-7053
▁르네	-7054
▁소요	-7055
지기도	-7056
▁병력을	-7057
▁경남	-7058
▁크루	-7059
▁꾸준히	-7060
▁준결승	-7061
▁선호	-7062
▁일어난다	-7063
류와	-7064
▁식품	-7065
▁현역	-7066
▁밀라노	-7067
all	-7068
▁사제	-7069
▁덕분에	-7070
▁반면에	-7071
▁세우고	-7072
▁이명박	-7073
ro	-7074
곡이	-7075
▁이날	-7076
스와의	-7077
우고	-7078
▁재료	-7079
▁영국과	-7080
▁브라질의	-7081
66	-7082
청이	-7083
▁성은	-7084
▁중지	-7085
▁약간의	-7086
신에	-7087
▁수직	-7088
▁조기	-7089
북도의	-7090
액을	-7091
훈련	-7092
▁분해	-7093
▁현에	-7094
▁의미가	-7095
▁결승전에서	-7096
분은	-7097
지마	-7098
▁유대인	-7099
스부르크	-7100
▁조선총독부	-7101
졌지만	-7102
▁앨범은	-7103
▁삼아	-7104
▁)	-7105
▁놀라	-7106
▁공무원	-7107
▁박근혜	-7108
▁흐르는	-7109
▁공장	-7110
▁무리	-7111
상이다	-7112
▁심지어	-7113
▁뱀	-7114
▁크라	-7115
▁못하게	-7116
▁우리가	-7117
위원회는	-7118
오가	-7119
▁겨우	-7120
▁리그의	-7121
▁열었다	-7122
▁수록되어	-7123
▁셋째	-7124
등에	-7125
▁매각	-7126
보의	-7127
▁곳은	-7128
▁교사	-7129
바키아	-7130
▁만들기	-7131
▁그렇다면	-7132
▁했	-7133
나카	-7134
ts	-7135
▁증언	-7136
률이	-7137
▁의거	-7138
▁찬성	-7139
▁포함된다	-7140
▁방법이	-7141
▁알렉산드	-7142
건은	-7143
▁소형	-7144
▁없었던	-7145
▁졸업하였다	-7146
보기	-7147
▁거느	-7148
▁곳을	-7149
▁전두	-7150
▁곧바로	-7151
▁세워진	-7152
▁시대에는	-7153
▁북미	-7154
▁예외	-7155
▁피터	-7156
▁익스	-7157
▁선두	-7158
▁사이트	-7159
▁신도	-7160
병으로	-7161
▁본선의	-7162
▁아프가니스탄	-7163
너스	-7164
모델	-7165
▁블록	-7166
▁마치고	-7167
▁지원하는	-7168
▁발족	-7169
▁배열	-7170
▁실업	-7171
▁유용	-7172
▁정부를	-7173
▁강이	-7174
▁공룡	-7175
▁오버	-7176
▁되찾	-7177
▁전의	-7178
방이	-7179
▁엘리자베	-7180
▁가면	-7181
▁콘서트	-7182
▁기용	-7183
▁암호	-7184
▁결심	-7185
▁변화가	-7186
▁부분에	-7187
▁우라	-7188
▁사용하지	-7189
▁말라	-7190
▁발명	-7191
ue	-7192
▁걷	-7193
산과	-7194
▁불리며	-7195
cc	-7196
▁딴	-7197
▁대학에서	-7198
제르	-7199
집합	-7200
▁폭탄	-7201
제에서	-7202
▁크기가	-7203
▁되었다고	-7204
준은	-7205
▁거둔	-7206
▁유닛	-7207
▁제후	-7208
기관이다	-7209
마저	-7210
차전	-7211
▁습격	-7212
▁약탈	-7213
▁유입	-7214
습을	-7215
▁ep	-7216
▁오케	-7217
▁참모	-7218
산에서	-7219
▁동맹을	-7220
▁정치인	-7221
▁현대의	-7222
달러	-7223
레인	-7224
▁되었으나	-7225
급의	-7226
▁심사	-7227
▁코파	-7228
▁바람에	-7229
▁지나지	-7230
유는	-7231
▁시와	-7232
▁시간에	-7233
▁적어도	-7234
곡의	-7235
슬라	-7236
91	-7237
▁빵	-7238
노의	-7239
▁명단	-7240
▁전북	-7241
▁작전을	-7242
▁이르기까지	-7243
▁읍	-7244
▁비로	-7245
이라며	-7246
▁소규모	-7247
▁졸업했다	-7248
자나	-7249
▁모습으로	-7250
▁사무실은	-7251
실한	-7252
▁급격	-7253
▁돌파	-7254
▁맞춰	-7255
▁세계에	-7256
성에서	-7257
재는	-7258
프라	-7259
▁실수	-7260
▁특허	-7261
▁옮겼다	-7262
▁돌아왔다	-7263
io	-7264
▁셔	-7265
▁방언	-7266
자들과	-7267
▁생각을	-7268
▁영화를	-7269
▁지었다	-7270
색이	-7271
▁사로	-7272
▁등장한	-7273
▁지역에서는	-7274
체인	-7275
▁게르	-7276
▁메탈	-7277
▁신고	-7278
페이지	-7279
83	-7280
▁아니고	-7281
데스리가	-7282
▁프랑스는	-7283
▁시달	-7284
▁책은	-7285
tr	-7286
▁이라는	-7287
▁타원	-7288
학과를	-7289
▁않았던	-7290
리티	-7291
▁선조	-7292
▁권한을	-7293
▁핸	-7294
훼손	-7295
▁보르	-7296
▁공산당	-7297
▁레이블	-7298
실에	-7299
졌던	-7300
▁수반	-7301
▁클래식	-7302
▁필요로	-7303
▁한반도	-7304
▁사촌	-7305
▁결과로	-7306
▁알렉산더	-7307
▁기부	-7308
▁발레	-7309
▁순수	-7310
▁명칭이	-7311
▁때문이었다	-7312
▁폐지되었다	-7313
우라	-7314
▁85	-7315
▁동서	-7316
▁산하	-7317
▁미국인	-7318
▁색깔	-7319
케이팅	-7320
교도	-7321
칸센	-7322
▁그럼	-7323
▁부유	-7324
▁필라	-7325
▁다음으로	-7326
81	-7327
▁사형	-7328
▁이재	-7329
▁아르메	-7330
▁데려	-7331
▁포스트	-7332
▁1906	-7333
보통	-7334
▁역의	-7335
▁클리	-7336
▁세계적인	-7337
카르	-7338
▁석방	-7339
▁장갑	-7340
▁없었고	-7341
67	-7342
▁들여	-7343
▁시게	-7344
인명	-7345
▁감각	-7346
▁붙잡	-7347
▁살펴	-7348
▁시에서	-7349
av	-7350
기지	-7351
목은	-7352
▁병원	-7353
▁스크린	-7354
▁하다가	-7355
루살	-7356
▁먹는	-7357
▁43	-7358
▁거친	-7359
▁운항	-7360
▁퍼져	-7361
권으로	-7362
▁친일반	-7363
되었다는	-7364
▁파크	-7365
나라는	-7366
▁들어와	-7367
▁상황이	-7368
년은	-7369
란다	-7370
터와	-7371
▁몸무	-7372
▁삭제	-7373
▁역이	-7374
▁지대	-7375
▁공간을	-7376
▁성과를	-7377
▁빅토리아	-7378
대사	-7379
▁소스	-7380
▁천체	-7381
곡으로	-7382
▁이루어진다	-7383
기능	-7384
보에	-7385
신문	-7386
▁41	-7387
▁mv	-7388
▁도쿄도	-7389
▁조약을	-7390
버드	-7391
▁카자	-7392
▁175	-7393
▁나라를	-7394
▁밖으로	-7395
▁비정	-7396
▁모래	-7397
▁일본에서는	-7398
년으로	-7399
▁쓴다	-7400
▁전남	-7401
▁우수한	-7402
▁한국인	-7403
▁대선	-7404
ok	-7405
▁옵	-7406
전한	-7407
▁뿐이다	-7408
카미	-7409
▁고가	-7410
▁추대	-7411
로미터	-7412
종이다	-7413
▁비잔티움	-7414
베리	-7415
졌을	-7416
편을	-7417
▁개장	-7418
▁경유	-7419
▁득표	-7420
▁입대	-7421
▁향을	-7422
루살렘	-7423
▁가야	-7424
▁이야기가	-7425
▁출연하였다	-7426
중국	-7427
▁장례	-7428
▁탑승	-7429
▁싱어송	-7430
▁주를	-7431
▁풍부한	-7432
종합	-7433
▁스티븐	-7434
▁용어는	-7435
▁이어졌다	-7436
하가	-7437
▁칼리	-7438
▁메모	-7439
▁친일반민족행위	-7440
▁물이	-7441
▁두려워	-7442
▁서북	-7443
보가	-7444
▁지바	-7445
다이라	-7446
▁마케도니아	-7447
▁마틴	-7448
▁심한	-7449
▁존재를	-7450
중은	-7451
타와	-7452
▁거대	-7453
▁보기	-7454
▁거리를	-7455
▁대회이다	-7456
보면	-7457
연한	-7458
▁간섭	-7459
▁감정	-7460
▁주제	-7461
되었기	-7462
▁love	-7463
팀이	-7464
▁눈을	-7465
▁선형	-7466
▁스승	-7467
▁기온은	-7468
▁크기는	-7469
▁오늘날의	-7470
시장	-7471
▁황태	-7472
졌는데	-7473
ss	-7474
▁닉	-7475
점과	-7476
시에서	-7477
▁소관의	-7478
▁아직도	-7479
▁가설	-7480
▁갈등	-7481
▁설이	-7482
▁세월	-7483
▁갱	-7484
총리	-7485
▁싱가포르	-7486
네는	-7487
▁보건	-7488
▁아리	-7489
▁콜로	-7490
▁주변에	-7491
▁한국에서는	-7492
들인	-7493
현이	-7494
▁번뇌	-7495
▁토착	-7496
슬라비아	-7497
머리	-7498
회로	-7499
▁노란	-7500
▁있으면	-7501
▁중심지	-7502
▁출전하여	-7503
▁당해	-7504
▁탐험	-7505
▁게임은	-7506
▁곤충	-7507
▁지내고	-7508
▁독자적인	-7509
브는	-7510
수도	-7511
▁기반을	-7512
▁딱	-7513
▁원인	-7514
▁차지하는	-7515
ca	-7516
▁적을	-7517
▁말하며	-7518
▁살았다	-7519
▁람	-7520
for	-7521
▁bo	-7522
▁못한다	-7523
▁원자력	-7524
이었는데	-7525
▁데뷔했다	-7526
▁획득했다	-7527
▁파울	-7528
▁내용의	-7529
▁벌였다	-7530
▁보이며	-7531
▁다룬	-7532
▁동굴	-7533
▁계획은	-7534
▁말하고	-7535
▁아울러	-7536
▁자유를	-7537
류로	-7538
▁과도	-7539
ld	-7540
파에	-7541
▁이세	-7542
▁종교적	-7543
▁공동으로	-7544
긴다	-7545
음은	-7546
▁법적	-7547
▁참고	-7548
주의에	-7549
▁유럽에서	-7550
트롤	-7551
▁매장	-7552
▁베네치아	-7553
▁뚫	-7554
▁심장	-7555
▁우익	-7556
▁신칸센	-7557
▁빨리	-7558
▁후의	-7559
연은	-7560
▁매니	-7561
▁모노	-7562
심의	-7563
▁금강	-7564
▁독점	-7565
▁무관	-7566
▁호환	-7567
▁이승만	-7568
업이	-7569
▁경계를	-7570
▁문화의	-7571
▁구성된다	-7572
금이	-7573
▁태국	-7574
▁판타	-7575
▁아티스트	-7576
색은	-7577
소수	-7578
▁다큐	-7579
▁유키	-7580
▁촉진	-7581
▁파생	-7582
▁화폐	-7583
▁대한제국	-7584
치며	-7585
▁공정	-7586
▁하사	-7587
▁싱어송라이터	-7588
▁걸려	-7589
▁뒤로	-7590
▁들어간	-7591
▁연방의	-7592
스에게	-7593
▁방향을	-7594
▁펑	-7595
초의	-7596
▁어릴	-7597
▁폭격	-7598
▁대전광역시	-7599
작을	-7600
▁모임	-7601
▁밀접	-7602
▁주거	-7603
▁천황의	-7604
▁아마추어	-7605
반의	-7606
▁소득	-7607
철도의	-7608
▁스페셜	-7609
대상	-7610
▁시절에	-7611
▁전체적으로	-7612
▁레인	-7613
▁서독	-7614
▁재위	-7615
▁않았으며	-7616
▁신분	-7617
▁토너	-7618
▁설치되었다	-7619
▁됐	-7620
▁go	-7621
▁무인	-7622
▁유적	-7623
▁먹는다	-7624
함으로	-7625
▁가지게	-7626
루미	-7627
▁제공하고	-7628
▁크로아티아	-7629
형과	-7630
▁발렌	-7631
나라를	-7632
▁활동에	-7633
나고	-7634
▁항구	-7635
▁bbc	-7636
▁규모가	-7637
▁최근에	-7638
문제연구	-7639
▁중국에서	-7640
과로	-7641
▁변신	-7642
▁평론	-7643
면서도	-7644
▁예루살렘	-7645
브레	-7646
▁최상	-7647
82	-7648
르와	-7649
▁리눅	-7650
▁범주	-7651
▁본선에	-7652
▁크기의	-7653
▁그리스도	-7654
▁크리스티	-7655
▁직무	-7656
그는	-7657
▁내륙	-7658
▁동영	-7659
린이	-7660
▁유성	-7661
▁중립	-7662
조판서	-7663
림을	-7664
▁스트리	-7665
▁엔진을	-7666
▁공식적인	-7667
수산	-7668
피는	-7669
▁문화를	-7670
▁의도	-7671
▁코무네	-7672
▁1904	-7673
▁목포	-7674
▁잠재	-7675
▁도움이	-7676
끼리	-7677
▁가해	-7678
▁책봉	-7679
▁구간은	-7680
▁자료를	-7681
▁입단하였다	-7682
온의	-7683
▁잃고	-7684
▁첩	-7685
▁발생한다	-7686
▁동시	-7687
▁알리	-7688
▁추가되었다	-7689
양은	-7690
▁겸임	-7691
▁많고	-7692
▁중화인민공화국의	-7693
▁가쓰	-7694
77	-7695
▁점은	-7696
▁주파	-7697
▁이곳에	-7698
▁친일인명	-7699
▁빨간	-7700
▁발전에	-7701
공이	-7702
▁가요	-7703
▁바티	-7704
속으로	-7705
유로	-7706
▁고시	-7707
카드	-7708
▁만난	-7709
마루	-7710
아를	-7711
ell	-7712
데이트	-7713
동에서	-7714
▁명단에	-7715
▁유고슬라비아	-7716
▁산악	-7717
▁아웃	-7718
▁성질을	-7719
▁고고	-7720
▁근육	-7721
▁때마다	-7722
▁별도로	-7723
▁달의	-7724
▁간단한	-7725
▁것이고	-7726
▁낳았다	-7727
▁공개되었다	-7728
▁갈색	-7729
▁고교	-7730
▁연락	-7731
▁전향	-7732
▁테오	-7733
▁작품이	-7734
▁집에서	-7735
▁불리기도	-7736
▁일본이	-7737
="	-7738
▁빗	-7739
사랑	-7740
▁시모	-7741
▁케이블	-7742
니에	-7743
오와	-7744
▁거기	-7745
▁고리	-7746
▁전승	-7747
▁개발을	-7748
▁1896	-7749
▁cr	-7750
▁호남	-7751
▁165	-7752
▁된다는	-7753
▁지원한다	-7754
▁dj	-7755
▁강과	-7756
▁영양	-7757
▁유전자	-7758
▁특성을	-7759
84	-7760
구조	-7761
즈에	-7762
코가	-7763
하라고	-7764
▁했다고	-7765
주인	-7766
▁애국	-7767
▁54	-7768
▁음성	-7769
▁추락	-7770
▁주장이	-7771
하겠다고	-7772
▁들었다	-7773
▁안토니	-7774
▁오디션	-7775
_10	-7776
▁아들을	-7777
ml	-7778
간을	-7779
으려	-7780
음의	-7781
com	-7782
▁고통	-7783
▁서기	-7784
된다는	-7785
▁효과가	-7786
▁싱글이다	-7787
보이	-7788
▁힘이	-7789
호선의	-7790
▁모양을	-7791
▁이외에	-7792
직에서	-7793
▁굽	-7794
복지	-7795
석에	-7796
칭은	-7797
▁내지	-7798
화하는	-7799
▁미국이	-7800
▁파키스탄	-7801
▁억제	-7802
▁우루	-7803
질로	-7804
▁날개	-7805
▁승차	-7806
▁월간	-7807
▁측은	-7808
용이	-7809
▁모듈	-7810
▁센트럴	-7811
▁석사	-7812
경과	-7813
우에	-7814
▁군을	-7815
▁자세	-7816
▁코스	-7817
▁이정	-7818
▁활동이	-7819
▁벗어	-7820
▁성벽	-7821
▁당했다	-7822
▁지역이다	-7823
나마	-7824
▁닌텐	-7825
▁전쟁은	-7826
▁요구하는	-7827
▁공원	-7828
▁방위	-7829
▁안양	-7830
출을	-7831
▁le	-7832
▁110	-7833
뱅크	-7834
율은	-7835
▁간에	-7836
▁납치	-7837
▁없기	-7838
▁과거에	-7839
▁이곳에서	-7840
▁빛을	-7841
▁순위	-7842
▁올린	-7843
▁유발	-7844
▁대신에	-7845
▁값을	-7846
▁계층	-7847
▁내장	-7848
▁합동	-7849
▁청주	-7850
▁제도의	-7851
▁없애	-7852
▁정벌	-7853
개국	-7854
항으로	-7855
▁1911	-7856
고자	-7857
▁섬을	-7858
베이스	-7859
식이다	-7860
▁그동안	-7861
등한	-7862
성도	-7863
▁초래	-7864
민주당	-7865
▁자전거	-7866
▁사령관	-7867
▁프리미어리그	-7868
식물	-7869
▁입증	-7870
▁데리고	-7871
▁목숨을	-7872
▁아이스	-7873
▁음반이다	-7874
변을	-7875
▁남한	-7876
▁본명은	-7877
▁시스템은	-7878
▁아니었다	-7879
▁투어	-7880
▁오리지	-7881
▁한국에서	-7882
▁활약하였다	-7883
▁쿼	-7884
▁스타디움	-7885
프란시스코	-7886
▁codice	-7887
족과	-7888
▁소위	-7889
▁계획이	-7890
▁담당하는	-7891
지구	-7892
플로	-7893
재의	-7894
▁군에	-7895
▁랭킹	-7896
▁카메라	-7897
▁네덜란드의	-7898
본이	-7899
사상	-7900
연이	-7901
이치	-7902
편이	-7903
▁개성	-7904
▁부처	-7905
▁유지하고	-7906
▁66	-7907
▁im	-7908
▁다녔	-7909
▁일대	-7910
▁구간이	-7911
니를	-7912
음에	-7913
▁반사	-7914
▁트윈	-7915
▁계열의	-7916
▁그랜드	-7917
▁꾀	-7918
▁흙	-7919
바다	-7920
▁마시	-7921
▁관하여	-7922
▁칙	-7923
청을	-7924
ber	-7925
▁예언	-7926
▁호주	-7927
▁브라우	-7928
▁사진을	-7929
들과의	-7930
▁등이다	-7931
석과	-7932
▁필립	-7933
▁노선이	-7934
악의	-7935
▁관심이	-7936
▁열차는	-7937
게이	-7938
▁일본어	-7939
▁기록하고	-7940
▁위치하며	-7941
다니	-7942
▁골드	-7943
▁산화	-7944
▁과학자	-7945
▁이익을	-7946
▁전투가	-7947
▁학교를	-7948
▁탱	-7949
▁아틀	-7950
▁섹	-7951
기획	-7952
행은	-7953
자리에	-7954
▁이었다	-7955
▁인간이	-7956
▁인근에	-7957
작은	-7958
▁냈다	-7959
▁성균	-7960
▁분야의	-7961
▁바꾸었다	-7962
아와	-7963
톤의	-7964
경기를	-7965
▁입었다	-7966
▁블라디	-7967
결을	-7968
500	-7969
▁밝히	-7970
▁적색	-7971
▁하천	-7972
▁전임	-7973
ep	-7974
문관	-7975
아웃	-7976
▁말할	-7977
▁왕위	-7978
▁커버	-7979
▁목록은	-7980
▁대지	-7981
▁드래곤	-7982
말을	-7983
반을	-7984
해진다	-7985
▁관광객	-7986
▁지배를	-7987
공은	-7988
▁막아	-7989
▁태조	-7990
▁차이를	-7991
▁토론토	-7992
나르	-7993
의에	-7994
▁인텔	-7995
있고	-7996
▁이글	-7997
법원	-7998
▁wh	-7999
▁교과	-8000
▁열어	-8001
▁호흡	-8002
▁업데이트	-8003
돌프	-8004
미사	-8005
시켰고	-8006
▁못했고	-8007
▁결과적으로	-8008
홈런	-8009
▁보좌	-8010
▁130	-8011
▁준우승	-8012
미와	-8013
▁재단	-8014
▁치렀다	-8015
니스트	-8016
▁일본군	-8017
▁가능하며	-8018
▁버리고	-8019
▁전체의	-8020
▁흩	-8021
쪽의	-8022
▁홀로	-8023
격이	-8024
민이	-8025
▁동독	-8026
▁모로	-8027
▁부드	-8028
▁전망	-8029
트랙	-8030
▁본격적인	-8031
▁사과	-8032
노미야	-8033
▁체제를	-8034
▁훈련을	-8035
▁가능성을	-8036
▁띤	-8037
황후	-8038
▁역전	-8039
▁서서히	-8040
시절	-8041
져서	-8042
▁유인	-8043
▁포맷	-8044
▁적절한	-8045
리케이션	-8046
업에	-8047
▁공략	-8048
▁어드	-8049
▁데뷔전을	-8050
그래	-8051
▁돌아오	-8052
▁툴	-8053
부사	-8054
현을	-8055
▁도메	-8056
▁때도	-8057
▁댄스	-8058
▁동치	-8059
▁일로	-8060
▁현존하는	-8061
▁깊이	-8062
라이더	-8063
▁이종	-8064
▁스파르타	-8065
레나	-8066
티의	-8067
화학	-8068
▁웨이	-8069
▁샌프란시스코	-8070
병이	-8071
▁구상	-8072
▁몰락	-8073
▁타워	-8074
▁불만을	-8075
▁쪽으로	-8076
▁버지니아	-8077
▁원작으로	-8078
▁디아	-8079
▁막을	-8080
▁시로	-8081
리아는	-8082
▁언어로	-8083
▁파란	-8084
▁과학적	-8085
▁상태이다	-8086
▁그랑	-8087
▁바둑	-8088
▁중력	-8089
▁또다시	-8090
금의	-8091
환의	-8092
▁제휴	-8093
▁얇	-8094
▁운동의	-8095
,0	-8096
비행	-8097
▁145	-8098
왔고	-8099
▁sn	-8100
▁옆에	-8101
성이다	-8102
판으로	-8103
▁램	-8104
▁57	-8105
▁지표	-8106
▁물리학	-8107
▁극단	-8108
▁긴급	-8109
▁밸	-8110
성한	-8111
▁김해	-8112
▁맞는	-8113
▁원년	-8114
각형	-8115
▁연계	-8116
▁운행하는	-8117
▁테크	-8118
▁형성된	-8119
스테이션	-8120
▁일환으로	-8121
▁고베	-8122
▁영광	-8123
▁카페	-8124
▁성공적으로	-8125
르바	-8126
제품	-8127
▁분산	-8128
▁무선	-8129
▁국가에서	-8130
마자	-8131
발의	-8132
▁특급	-8133
▁다루고	-8134
▁않는다는	-8135
션을	-8136
코프	-8137
▁못해	-8138
▁전원	-8139
▁연고로	-8140
건설	-8141
▁곳곳	-8142
▁본토	-8143
▁정의할	-8144
전투	-8145
▁수천	-8146
▁찾을	-8147
▁모델로	-8148
▁받기도	-8149
▁브레이	-8150
▁참가하여	-8151
고한	-8152
▁공용	-8153
▁합계	-8154
때문에	-8155
▁편지를	-8156
▁자리에서	-8157
▁쏟	-8158
편에	-8159
▁게시	-8160
경으로	-8161
▁김영삼	-8162
명인	-8163
▁지목	-8164
▁구조의	-8165
▁다큐멘	-8166
▁생각했다	-8167
진흥	-8168
▁가질	-8169
▁준공	-8170
▁결혼을	-8171
작가	-8172
▁뒤인	-8173
▁마라	-8174
▁압박	-8175
▁조문이다	-8176
교로	-8177
▁ht	-8178
▁mm	-8179
▁착공	-8180
▁플레	-8181
▁프로그램은	-8182
▁클라우	-8183
▁49	-8184
▁미시	-8185
▁좌익	-8186
▁창당	-8187
▁700	-8188
▁훌륭한	-8189
▁맞게	-8190
▁몸길	-8191
▁문신	-8192
▁생애	-8193
▁자손	-8194
▁mvp	-8195
▁그럼에도	-8196
항에	-8197
▁나선	-8198
▁선제	-8199
▁야스	-8200
▁한신	-8201
▁막대한	-8202
▁사용자가	-8203
▁동아시아	-8204
▁근로	-8205
▁cpu	-8206
▁결과는	-8207
▁북쪽에	-8208
▁비스	-8209
▁이복	-8210
▁지역과	-8211
▁곁	-8212
공학	-8213
▁뒤에는	-8214
▁만화가	-8215
▁선거에	-8216
▁트라	-8217
▁스토리	-8218
▁영화로	-8219
▁사이에는	-8220
▁구는	-8221
▁클로	-8222
자였다	-8223
▁왕으로	-8224
▁프로그램의	-8225
▁락	-8226
▁가라	-8227
▁각본	-8228
▁반환	-8229
▁벨라	-8230
▁피난	-8231
중에서	-8232
▁바이올	-8233
▁원래의	-8234
저는	-8235
된다고	-8236
▁오리지널	-8237
▁꼬리	-8238
▁리듬	-8239
▁에우	-8240
▁방식의	-8241
▁가득	-8242
▁보살	-8243
▁자바	-8244
▁활동한	-8245
one	-8246
▁아우구	-8247
▁무슬	-8248
▁이자	-8249
안으로	-8250
▁목적은	-8251
▁일본으로	-8252
▁발생하였다	-8253
▁서남	-8254
자이며	-8255
▁능력이	-8256
▁광주광역시	-8257
▁퇴각	-8258
펙트럼	-8259
▁군대는	-8260
▁라이프	-8261
▁위기에	-8262
▁경전	-8263
▁마산	-8264
▁특수한	-8265
센트	-8266
▁약한	-8267
체에서	-8268
▁잊	-8269
실록	-8270
▁국토	-8271
였기	-8272
▁대답	-8273
마쓰	-8274
▁해병	-8275
▁혈액	-8276
▁근거로	-8277
▁사용해	-8278
통일	-8279
▁동지	-8280
▁파티	-8281
렸던	-8282
▁이르고	-8283
▁전투에	-8284
▁펄	-8285
▁공전	-8286
▁오염	-8287
▁황후	-8288
▁당한	-8289
▁참조	-8290
년만에	-8291
▁태어났으며	-8292
800	-8293
▁교섭	-8294
▁있다면	-8295
▁직접적인	-8296
님이	-8297
타나	-8298
▁기동	-8299
▁끝이	-8300
▁미치는	-8301
▁현상이	-8302
ga	-8303
▁노르웨	-8304
▁얼마나	-8305
▁자유롭게	-8306
활동	-8307
ore	-8308
▁아비	-8309
내에서	-8310
우와	-8311
▁신라의	-8312
▁이론은	-8313
▁인물이다	-8314
▁배제	-8315
▁초상	-8316
▁형태가	-8317
▁적의	-8318
기관으로	-8319
▁덴마크의	-8320
터로	-8321
▁조직의	-8322
관찰	-8323
포는	-8324
▁인류	-8325
▁장르	-8326
▁목적을	-8327
▁히어로	-8328
▁휩	-8329
온이	-8330
타카	-8331
▁미분	-8332
▁시마	-8333
목의	-8334
클럽	-8335
▁피렌	-8336
▁기갑	-8337
▁꺾고	-8338
▁신화	-8339
▁거기에	-8340
▁마스터	-8341
▁머리를	-8342
롤라	-8343
오리	-8344
▁51	-8345
▁중동	-8346
▁찾는	-8347
▁흰색	-8348
▁강점기	-8349
▁정도가	-8350
▁관련하여	-8351
률은	-8352
ong	-8353
▁wor	-8354
▁곳이	-8355
▁서방	-8356
하였기	-8357
▁기술이	-8358
▁일찍이	-8359
▁해군의	-8360
▁돔	-8361
▁뤼	-8362
자이너	-8363
인조	-8364
▁무효	-8365
▁수익	-8366
▁실용	-8367
▁이순	-8368
▁아니며	-8369
▁언어를	-8370
-15	-8371
▁옹호	-8372
▁청동	-8373
▁쿠바	-8374
▁해제	-8375
▁250	-8376
건이	-8377
▁pd	-8378
▁기재	-8379
▁막부	-8380
▁끝나고	-8381
▁운동이	-8382
▁명칭으로	-8383
▁칩	-8384
견을	-8385
▁여의	-8386
▁최신	-8387
▁사용하며	-8388
▁구마	-8389
▁크림	-8390
▁민족문제연구	-8391
측의	-8392
:00	-8393
▁고립	-8394
▁중이던	-8395
▁토마스	-8396
랑이	-8397
야를	-8398
▁마카	-8399
▁왕위를	-8400
▁1500	-8401
▁아르메니아	-8402
▁애플리케이션	-8403
▁무늬	-8404
▁대회를	-8405
▁사상을	-8406
▁차트에서	-8407
▁최종적으로	-8408
타임	-8409
▁간접	-8410
▁에스파	-8411
▁전통적으로	-8412
진과	-8413
▁무료	-8414
▁내부의	-8415
ock	-8416
▁적대	-8417
▁문화적	-8418
▁은퇴한	-8419
▁가능하게	-8420
▁사람에게	-8421
한을	-8422
▁착수	-8423
스티벌	-8424
▁달아	-8425
▁상무	-8426
▁시대를	-8427
▁자격을	-8428
.)	-8429
▁배틀	-8430
▁별의	-8431
▁결과가	-8432
▁사단법인이다	-8433
▁모르	-8434
▁아케	-8435
▁경험을	-8436
▁제국이	-8437
▁지금도	-8438
▁후반에	-8439
▁젠	-8440
먼은	-8441
▁sf	-8442
▁이수	-8443
▁충분한	-8444
▁깔	-8445
▁수도권	-8446
▁하나를	-8447
▁구체적인	-8448
▁남아있다	-8449
메르	-8450
▁한화	-8451
▁혁신	-8452
서에서	-8453
▁속도를	-8454
▁랑	-8455
▁늘어나	-8456
▁사이클	-8457
▁mc	-8458
▁구름	-8459
▁역과	-8460
▁바르셀로나	-8461
백을	-8462
▁당의	-8463
▁성씨	-8464
▁추적	-8465
▁퍼시	-8466
▁국가를	-8467
▁시작해	-8468
생이	-8469
▁일어났	-8470
▁차례로	-8471
츠와	-8472
항이	-8473
▁빛의	-8474
▁해임	-8475
▁화제가	-8476
▁연구하는	-8477
▁원로	-8478
▁제네	-8479
▁1909	-8480
74	-8481
▁공채	-8482
▁종전	-8483
▁항공기	-8484
▁스마트폰	-8485
소리	-8486
▁원자로	-8487
▁에피소드	-8488
온다	-8489
레이드	-8490
▁멤버로	-8491
▁찾아가	-8492
▁생각된다	-8493
▁오스트레일리아의	-8494
금융	-8495
단계	-8496
▁출력	-8497
▁리투아	-8498
▁속도로	-8499
▁아이템	-8500
▁이처럼	-8501
받지	-8502
▁마찰	-8503
▁야기	-8504
▁정에	-8505
▁않도록	-8506
둥이	-8507
▁친선	-8508
▁개념은	-8509
▁남양	-8510
▁말한	-8511
▁스펙트럼	-8512
스톤	-8513
▁맡게	-8514
▁길이가	-8515
란을	-8516
▁메가	-8517
▁사직	-8518
▁총선에서	-8519
▁부른	-8520
생으로	-8521
▁중앙에	-8522
▁특유의	-8523
▁마쓰다이라	-8524
실과	-8525
터에	-8526
▁군대가	-8527
▁요소를	-8528
▁주제로	-8529
▁폼	-8530
애나	-8531
▁마친	-8532
▁플루	-8533
▁사로잡	-8534
▁펴	-8535
증이	-8536
▁들은	-8537
▁백인	-8538
▁왕립	-8539
▁건너가	-8540
▁출신이다	-8541
열한	-8542
하러	-8543
▁모집	-8544
학교에	-8545
커는	-8546
▁배급	-8547
▁용어	-8548
▁전성	-8549
▁풀려	-8550
▁실험을	-8551
렸을	-8552
릭스	-8553
▁디젤	-8554
▁방면	-8555
▁좋아하는	-8556
켰다	-8557
▁빌헬	-8558
▁죽을	-8559
론에서	-8560
▁떠난	-8561
▁선을	-8562
나라에	-8563
▁알바니아	-8564
더는	-8565
▁개업	-8566
▁보잉	-8567
▁용산	-8568
▁항일	-8569
▁항해	-8570
▁대우	-8571
▁끝났다	-8572
▁부통령	-8573
-6	-8574
300	-8575
▁사용이	-8576
팀은	-8577
▁br	-8578
▁남긴	-8579
▁동기	-8580
▁포인	-8581
▁어두운	-8582
▁지중해	-8583
▁히데요	-8584
▁감독이다	-8585
▁료	-8586
▁대로	-8587
▁무력	-8588
▁단백질	-8589
▁승리로	-8590
,7	-8591
비시	-8592
▁사장	-8593
▁양도	-8594
▁침몰	-8595
▁급속	-8596
▁발효	-8597
▁임신	-8598
▁중구	-8599
▁무슬림	-8600
▁비공식	-8601
▁크로스	-8602
년대부터	-8603
챌린	-8604
▁비가	-8605
▁화려한	-8606
ma	-8607
기구	-8608
번을	-8609
▁그룹의	-8610
가루	-8611
즈키	-8612
▁고조	-8613
▁바그	-8614
▁입문	-8615
▁확인할	-8616
▁we	-8617
▁남해	-8618
▁이마	-8619
음으로	-8620
▁면에서	-8621
이었다고	-8622
▁52	-8623
▁삼고	-8624
▁상영	-8625
▁학사	-8626
▁발견한	-8627
▁후기의	-8628
▁일원으로	-8629
일리	-8630
▁결정을	-8631
▁사실은	-8632
▁여동생	-8633
▁콘텐츠	-8634
▁테스트	-8635
▁앨범이다	-8636
장군	-8637
▁신사	-8638
럼비아	-8639
▁규정하고	-8640
소한	-8641
이사	-8642
▁제갈	-8643
▁사고로	-8644
▁선수이자	-8645
▁진출하였다	-8646
▁된다고	-8647
고속	-8648
▁한강	-8649
▁항공모	-8650
▁폴란드의	-8651
▁경기에서는	-8652
▁머무	-8653
▁안의	-8654
세에게	-8655
위원회의	-8656
▁1915	-8657
더스	-8658
▁mp	-8659
▁선진	-8660
▁토대로	-8661
▁거주하고	-8662
▁발생했다	-8663
▁보여주고	-8664
▁당선되었다	-8665
사추	-8666
천을	-8667
훈은	-8668
▁두드러	-8669
▁소재로	-8670
▁떼	-8671
▁침해	-8672
금으로	-8673
리스토	-8674
▁행성의	-8675
▁기요	-8676
▁모험	-8677
▁개발된	-8678
▁티베트	-8679
▁원형	-8680
▁장면	-8681
▁1895	-8682
▁전쟁으로	-8683
▁문화재자료	-8684
▁평생	-8685
▁연구가	-8686
규칙	-8687
란이	-8688
▁조용	-8689
▁방식은	-8690
▁페이지	-8691
▁형식의	-8692
▁뷰	-8693
▁ic	-8694
▁레닌	-8695
▁부흥	-8696
▁여덟	-8697
▁여왕	-8698
▁충격	-8699
ng	-8700
▁가공	-8701
▁공의	-8702
▁아가	-8703
▁풋볼	-8704
▁근처의	-8705
▁시간은	-8706
▁연루	-8707
▁온도	-8708
:1	-8709
업은	-8710
▁(	-8711
클라	-8712
▁수신	-8713
▁협회	-8714
▁덧붙여	-8715
인들에게	-8716
ith	-8717
▁지연	-8718
▁회의에서	-8719
▁근접	-8720
▁탄소	-8721
▁전에는	-8722
년대에는	-8723
▁보인	-8724
▁차남	-8725
▁초창	-8726
레의	-8727
프스	-8728
▁경부	-8729
▁와카	-8730
미디어	-8731
오를	-8732
▁가미	-8733
▁상임	-8734
▁창시	-8735
▁잘못된	-8736
프에	-8737
▁가사	-8738
▁호수	-8739
투쟁	-8740
▁박영	-8741
▁친척	-8742
▁하노	-8743
▁비슷하다	-8744
▁연속으로	-8745
▁굵	-8746
net	-8747
▁건의	-8748
치면서	-8749
▁제목으로	-8750
▁복수	-8751
▁운반	-8752
▁제약	-8753
▁경력을	-8754
▁파트너	-8755
▁주니	-8756
초에	-8757
▁안티	-8758
중에는	-8759
▁병력	-8760
▁관계로	-8761
서이다	-8762
▁레코드	-8763
▁부르며	-8764
▁가톨릭교	-8765
어진다	-8766
▁제국은	-8767
▁얻기	-8768
▁채로	-8769
▁주식회사	-8770
be	-8771
리타	-8772
카스	-8773
▁갑작	-8774
▁경우를	-8775
▁실시된	-8776
▁포함해	-8777
▁모순	-8778
▁남쪽에	-8779
▁엔터테인먼트	-8780
개는	-8781
네의	-8782
장애	-8783
형태	-8784
야가	-8785
열이	-8786
▁밖의	-8787
▁이지	-8788
▁대서양	-8789
▁없으나	-8790
▁루트비히	-8791
▁시작하는	-8792
조약	-8793
▁경고	-8794
▁아나운	-8795
▁험	-8796
▁공무	-8797
▁이치	-8798
가에서	-8799
▁생기는	-8800
▁중심의	-8801
▁하우스	-8802
,6	-8803
로디	-8804
▁귀환	-8805
▁점유	-8806
▁팽창	-8807
▁희극	-8808
▁중심이	-8809
니까	-8810
현악	-8811
▁따르는	-8812
▁시기의	-8813
▁되었지만	-8814
▁은메달을	-8815
▁하였는데	-8816
림픽	-8817
▁곡으로	-8818
▁에스토	-8819
▁서울에서	-8820
▁장편	-8821
▁어렵다	-8822
▁쟁	-8823
▁게재	-8824
▁고지	-8825
▁대폭	-8826
▁후일	-8827
▁그림을	-8828
▁위원회	-8829
▁필라델	-8830
장한	-8831
▁기구	-8832
▁메디	-8833
▁얘	-8834
닉스	-8835
두는	-8836
▁정부로부터	-8837
레를	-8838
리브	-8839
미에	-8840
▁후한	-8841
▁전자기	-8842
af	-8843
진에	-8844
▁다가	-8845
▁사양	-8846
▁융합	-8847
▁발매했다	-8848
▁세워졌다	-8849
▁설립하였다	-8850
천은	-8851
▁진술	-8852
▁그러자	-8853
▁두번째	-8854
▁아이를	-8855
▁gr	-8856
▁써서	-8857
▁폐기	-8858
▁동메달을	-8859
▁역사적으로	-8860
▁땅에	-8861
▁영화배우	-8862
▁친일인명사전	-8863
았을	-8864
ect	-8865
▁복사	-8866
▁채권	-8867
▁피고	-8868
▁할당	-8869
▁언제나	-8870
▁유소년	-8871
테쓰	-8872
▁외의	-8873
▁리버풀	-8874
열의	-8875
▁털이	-8876
▁북부에	-8877
▁연구는	-8878
▁제외하고는	-8879
▁유니버	-8880
식품	-8881
철은	-8882
▁다녀	-8883
▁도심	-8884
▁얻는	-8885
▁오렌	-8886
▁성질	-8887
▁기록에	-8888
층은	-8889
▁각기	-8890
▁배를	-8891
▁싫어	-8892
▁챌린	-8893
▁회사는	-8894
▁5000	-8895
▁못할	-8896
▁살던	-8897
▁대주교	-8898
종과	-8899
▁발라	-8900
▁한양	-8901
주년을	-8902
▁1913	-8903
▁베이스볼	-8904
▁방영되었다	-8905
72	-8906
번호	-8907
중심	-8908
▁사용을	-8909
▁하버드	-8910
▁시스템의	-8911
▁있어서는	-8912
▁이바	-8913
스테르	-8914
정부의	-8915
화하여	-8916
</	-8917
per	-8918
▁ps	-8919
▁주축	-8920
▁측근	-8921
▁나갔다	-8922
▁아파트	-8923
▁디자이너	-8924
▁이듬해인	-8925
▁법학	-8926
▁예방	-8927
▁정원	-8928
▁짙	-8929
▁인조	-8930
▁결정했다	-8931
▁프랑스와	-8932
▁울산광역시	-8933
▁트위	-8934
▁남부의	-8935
▁리메이	-8936
▁전부터	-8937
▁조직을	-8938
▁간다	-8939
▁우승하였다	-8940
심한	-8941
씨와	-8942
▁군사적	-8943
▁급진	-8944
▁뿌리	-8945
사추세	-8946
▁영역을	-8947
▁의견이	-8948
때로	-8949
▁명문	-8950
▁장의	-8951
상으로는	-8952
▁돌아갔다	-8953
▁이토	-8954
▁페루	-8955
▁스테이지	-8956
hz	-8957
팩트	-8958
편으로	-8959
▁형식을	-8960
▁죽이고	-8961
마리	-8962
▁거슬러	-8963
▁아니면	-8964
▁커뮤니티	-8965
▁뿔	-8966
그로	-8967
▁낮아	-8968
▁주말	-8969
▁부문에	-8970
▁사격	-8971
▁재즈	-8972
▁특징은	-8973
ud	-8974
▁구의	-8975
▁두산	-8976
겼고	-8977
해주	-8978
▁바가	-8979
▁일렉	-8980
▁피에	-8981
있으며	-8982
과이	-8983
패로	-8984
▁중계	-8985
이라도	-8986
▁둘러싼	-8987
▁평소	-8988
▁영국은	-8989
▁철학자	-8990
▁하와이	-8991
보병	-8992
자도	-8993
▁법을	-8994
▁성경	-8995
▁주니어	-8996
▁3000	-8997
▁지지하는	-8998
▁윙	-8999
제국의	-9000
▁쓰이고	-9001
▁한동안	-9002
▁기업의	-9003
▁남부에	-9004
79	-9005
▁펜실	-9006
학위를	-9007
▁파리에서	-9008
▁컸	-9009
각이	-9010
▁끊임	-9011
박쥐는	-9012
▁마르크스	-9013
▁정찰	-9014
당하였다	-9015
▁사용하기	-9016
▁활동은	-9017
▁황제가	-9018
▁시작했으며	-9019
수엘	-9020
▁기생	-9021
▁반지	-9022
▁영주	-9023
▁합리	-9024
▁활발한	-9025
누리	-9026
▁ma	-9027
▁개화	-9028
▁닛폰	-9029
▁일도	-9030
스트의	-9031
▁마음작용	-9032
▁트레이드	-9033
미로	-9034
속을	-9035
차별	-9036
▁뜻의	-9037
▁줄어	-9038
량으로	-9039
▁자식	-9040
자리를	-9041
▁나이트	-9042
▁독일은	-9043
▁앨범의	-9044
▁조사를	-9045
▁조선인	-9046
▁플라스	-9047
학이	-9048
▁연설	-9049
▁푸른	-9050
▁도호쿠	-9051
▁속도가	-9052
▁퓨	-9053
내기	-9054
▁이에야	-9055
▁후지와	-9056
▁곰	-9057
▁햄	-9058
▁목격	-9059
▁하거나	-9060
꼬리	-9061
산군	-9062
▁비오	-9063
▁앨런	-9064
▁편리	-9065
▁협상	-9066
uc	-9067
모로	-9068
▁비극	-9069
▁어항	-9070
▁주문	-9071
▁민주화	-9072
▁카이사	-9073
▁아들이다	-9074
▁송시	-9075
▁노력을	-9076
▁점이다	-9077
▁분리되어	-9078
▁성공적인	-9079
▁안드로이드	-9080
68	-9081
손은	-9082
적에	-9083
플러	-9084
택을	-9085
▁내리	-9086
▁시집	-9087
▁스카이	-9088
여래	-9089
▁잃은	-9090
▁마드리드	-9091
우며	-9092
있던	-9093
▁풀어	-9094
▁르네상	-9095
▁리그에	-9096
▁발견되는	-9097
바나	-9098
일간	-9099
▁삶의	-9100
▁서브	-9101
▁석탄	-9102
쥐과에	-9103
군사	-9104
▁스톤	-9105
▁보내는	-9106
함의	-9107
▁라트	-9108
▁때로는	-9109
▁지어진	-9110
▁데뷔하였고	-9111
▁오스트리아의	-9112
▁ip	-9113
▁소닉	-9114
▁분야에	-9115
란의	-9116
▁보상	-9117
▁스틸	-9118
▁일부로	-9119
▁이리	-9120
▁조건으로	-9121
불교	-9122
▁나의	-9123
▁부품	-9124
▁우리의	-9125
▁분데스리가	-9126
님을	-9127
▁회색	-9128
▁페이스	-9129
▁담당하고	-9130
▁웰	-9131
▁발견했다	-9132
▁몰려	-9133
▁왕은	-9134
▁건물이	-9135
▁수록된	-9136
▁않았기	-9137
톨레	-9138
풍을	-9139
▁두루	-9140
▁유물	-9141
▁촉구	-9142
형이다	-9143
▁김동	-9144
▁취약	-9145
▁무거운	-9146
▁출연한	-9147
▁문화체육	-9148
▁닿	-9149
목이	-9150
▁관통	-9151
▁때때로	-9152
▁일관	-9153
▁콩고	-9154
▁명예의	-9155
▁의사를	-9156
▁도움으로	-9157
▁소속되어	-9158
필드	-9159
▁쌓아	-9160
글라	-9161
▁내내	-9162
▁대조	-9163
▁미하	-9164
▁예능	-9165
▁진영	-9166
▁착륙	-9167
,500	-9168
▁관리하고	-9169
▁봉해졌다	-9170
론적	-9171
▁일에	-9172
▁성공한	-9173
▁지명을	-9174
▁들어가는	-9175
직한	-9176
▁창건	-9177
▁말하였다	-9178
능력	-9179
▁쉬운	-9180
▁커피	-9181
▁155	-9182
▁버전은	-9183
▁정확하게	-9184
▁모델이다	-9185
▁전례	-9186
▁정책에	-9187
ov	-9188
▁슐	-9189
우치	-9190
▁바꿔	-9191
▁브로	-9192
▁자발	-9193
▁주한	-9194
▁하얀	-9195
▁무대에	-9196
▁정부와	-9197
▁가즈	-9198
시에는	-9199
▁위협을	-9200
▁출시된	-9201
▁관점에서	-9202
62	-9203
▁미네	-9204
▁민속	-9205
▁좌파	-9206
▁대학원	-9207
▁첫번째	-9208
▁강은	-9209
▁채무	-9210
▁포괄	-9211
▁우연히	-9212
▁론	-9213
▁잦	-9214
▁내외	-9215
▁의지	-9216
▁나라에서	-9217
안군	-9218
포스	-9219
▁중순	-9220
▁작고	-9221
▁추증	-9222
▁들어오	-9223
▁라틴어	-9224
▁아이슬	-9225
▁선수들이	-9226
▁서경	-9227
▁타운	-9228
블로	-9229
▁달린	-9230
▁미얀	-9231
▁바위	-9232
▁반박	-9233
과도	-9234
▁||	-9235
▁비서	-9236
▁개혁을	-9237
▁스트라이	-9238
▁움직이는	-9239
간이	-9240
공신	-9241
번뇌	-9242
편성	-9243
▁99	-9244
▁메리	-9245
▁무라	-9246
▁메트로	-9247
▁의회는	-9248
▁굉	-9249
▁신장	-9250
▁시즌이	-9251
▁실패했다	-9252
▁어려움을	-9253
▁경북	-9254
▁부패	-9255
▁산타	-9256
▁해적	-9257
▁바꾸어	-9258
▁스프링	-9259
▁이미지를	-9260
61	-9261
조정	-9262
▁모시	-9263
▁수치	-9264
▁통칭	-9265
▁힌두	-9266
받는다	-9267
▁넣었다	-9268
▁시작된다	-9269
▁학생들이	-9270
안타	-9271
▁둘은	-9272
▁리드	-9273
▁왕족	-9274
▁흥행	-9275
▁허리케	-9276
▁주장하고	-9277
▁껍	-9278
▁스핀	-9279
▁시칠	-9280
▁약화	-9281
▁거리가	-9282
▁진정한	-9283
▁투르크	-9284
카를	-9285
▁좋다	-9286
▁숙종	-9287
▁인증	-9288
▁되었을	-9289
시피	-9290
초를	-9291
▁재산을	-9292
▁구체적으로	-9293
고쿠	-9294
▁53	-9295
▁외무	-9296
▁트럭	-9297
▁경기장	-9298
▁과거의	-9299
▁신흥	-9300
▁구조는	-9301
하였다는	-9302
▁전압	-9303
▁패턴	-9304
▁흐름	-9305
▁민주주의	-9306
▁참여하여	-9307
▁출전하였다	-9308
후보	-9309
▁88	-9310
▁수록곡	-9311
ang	-9312
~19	-9313
▁1.	-9314
▁쫓겨	-9315
▁섬으로	-9316
▁보스니아	-9317
▁승강장은	-9318
71	-9319
▁대외	-9320
▁악화	-9321
▁유니폼	-9322
▁작품에	-9323
69	-9324
▁럭	-9325
▁캡	-9326
연구소	-9327
▁삿	-9328
숙한	-9329
▁지점에	-9330
합니다	-9331
▁본사는	-9332
▁컨트롤	-9333
▁거주하는	-9334
▁알려지지	-9335
▁롬	-9336
▁한국에	-9337
▁홈페이지	-9338
진으로	-9339
▁손해	-9340
▁부대를	-9341
▁특이한	-9342
예정	-9343
전기	-9344
▁노비	-9345
▁분광	-9346
▁오가	-9347
▁교수가	-9348
▁기록하여	-9349
민을	-9350
ant	-9351
▁눈이	-9352
▁발원	-9353
▁세로	-9354
▁야생	-9355
▁에릭	-9356
▁지질	-9357
▁화면	-9358
구리	-9359
여객	-9360
크에	-9361
▁개그	-9362
▁안타	-9363
러리	-9364
▁객관	-9365
▁아폴	-9366
▁금메달	-9367
▁일했다	-9368
▁스케이팅	-9369
▁인정받아	-9370
▁지방에서	-9371
▁퀴	-9372
▁신하	-9373
공동	-9374
하니	-9375
▁아벨	-9376
점이다	-9377
행의	-9378
▁기호	-9379
▁멈추	-9380
▁술탄	-9381
▁팀에	-9382
▁합법	-9383
dr	-9384
분야	-9385
▁가벼	-9386
▁수단	-9387
ate	-9388
▁ra	-9389
▁원산	-9390
화하고	-9391
▁베네수엘	-9392
▁지냈으며	-9393
▁구미	-9394
▁꿈을	-9395
▁사르	-9396
▁1.5	-9397
▁생각하고	-9398
▁수행하는	-9399
tp	-9400
▁젖	-9401
슨과	-9402
▁나타낼	-9403
▁노래는	-9404
▁시즌에는	-9405
▁고무	-9406
▁대만	-9407
▁주가	-9408
▁맡았고	-9409
▁방송국	-9410
▁헐	-9411
리코	-9412
ack	-9413
▁따뜻	-9414
시스트	-9415
▁이곳은	-9416
▁선수이며	-9417
▁오키나와	-9418
▁양식	-9419
▁가난한	-9420
▁둘러싸고	-9421
▁받았으나	-9422
병의	-9423
포의	-9424
▁바뀐	-9425
▁달러를	-9426
▁집으로	-9427
▁맡았으며	-9428
▁대학을	-9429
▁캐스팅	-9430
▁과학기술	-9431
▁여기에서	-9432
▁강경	-9433
▁끌려	-9434
▁정류	-9435
▁충족	-9436
▁시설이	-9437
하였다가	-9438
▁부과	-9439
▁사적	-9440
▁스파이	-9441
▁요미우리	-9442
▁아이슬란드	-9443
▁관장	-9444
▁물에	-9445
▁위안	-9446
▁않았으나	-9447
▁종결	-9448
▁별다른	-9449
사추세츠	-9450
~3	-9451
바시	-9452
수인	-9453
작품	-9454
키와	-9455
▁보충	-9456
▁용이	-9457
▁죄를	-9458
▁국가에	-9459
▁보한다	-9460
▁이루었다	-9461
▁연호	-9462
▁비난을	-9463
▁1916	-9464
▁리메이크	-9465
▁임명되어	-9466
ix	-9467
▁모니	-9468
▁훼손	-9469
oh	-9470
리크	-9471
▁지폐	-9472
▁오디오	-9473
▁주어졌다	-9474
길을	-9475
부문	-9476
▁58	-9477
▁교외	-9478
▁제작되었다	-9479
티에	-9480
▁짓고	-9481
케이션	-9482
sc	-9483
▁광역	-9484
▁무신	-9485
▁비즈	-9486
▁주립	-9487
▁중심지는	-9488
란은	-9489
테스	-9490
ind	-9491
▁격퇴	-9492
▁형태는	-9493
▁고도	-9494
▁관습	-9495
▁병행	-9496
▁호칭	-9497
▁낼	-9498
▁재발	-9499
▁통화	-9500
▁정치가	-9501
▁것인	-9502
▁탓에	-9503
▁변경하였다	-9504
르노	-9505
▁창업	-9506
▁청와	-9507
▁것에서	-9508
▁시기는	-9509
▁독일에서	-9510
▁크리스토	-9511
63	-9512
포가	-9513
▁나섰다	-9514
▁디즈니	-9515
▁전한다	-9516
▁자이언츠	-9517
▁프로리그	-9518
▁길고	-9519
▁로빈	-9520
▁배정	-9521
▁양키	-9522
▁연애	-9523
▁모델은	-9524
▁문화체육관광	-9525
디스	-9526
▁구릉	-9527
▁수수	-9528
▁설치류의	-9529
경영	-9530
다리	-9531
라톱	-9532
▁이나	-9533
▁조금씩	-9534
버는	-9535
▁친정	-9536
이었기	-9537
▁건물을	-9538
차전에서	-9539
환이	-9540
▁수평	-9541
▁식으로	-9542
스러	-9543
희의	-9544
▁난이	-9545
▁왜냐	-9546
▁힘입	-9547
▁다리를	-9548
▁코치로	-9549
마와	-9550
▁평등	-9551
_8	-9552
sh	-9553
너의	-9554
소스	-9555
▁둥근	-9556
▁유신	-9557
투를	-9558
400	-9559
▁왕비	-9560
▁공간의	-9561
▁소수의	-9562
▁성공하였다	-9563
란트	-9564
!"	-9565
▁나눌	-9566
▁명백	-9567
▁서해	-9568
▁손상	-9569
▁조반	-9570
불교의	-9571
▁노선은	-9572
▁초점을	-9573
▁판결을	-9574
▁딜	-9575
▁교도	-9576
▁서재	-9577
▁맞추어	-9578
▁동아일보	-9579
주식	-9580
▁며칠	-9581
▁쓰인	-9582
▁아서	-9583
됨으로써	-9584
▁플레이어	-9585
▁탕	-9586
자연	-9587
▁중추원	-9588
고등학교를	-9589
왕에	-9590
▁ph	-9591
▁호르	-9592
▁다이아	-9593
▁빌헬름	-9594
▁밴드이다	-9595
▁기타리스트	-9596
▁동남아시아	-9597
강점	-9598
받을	-9599
▁아즈	-9600
▁어울	-9601
▁이틀	-9602
▁노무현	-9603
▁제주특별자치	-9604
주쿠	-9605
권에서	-9606
▁대학에	-9607
▁득점을	-9608
▁히가시	-9609
방은	-9610
▁잎은	-9611
▁거리는	-9612
▁대회의	-9613
▁십자가	-9614
디에	-9615
티스	-9616
▁이긴	-9617
▁이영	-9618
▁나가사키	-9619
▁선언했다	-9620
▁닥터	-9621
▁여론	-9622
▁외곽	-9623
태평양	-9624
▁조치를	-9625
▁대통령을	-9626
각의	-9627
▁cm	-9628
▁폐위	-9629
▁후보에	-9630
▁상징하는	-9631
고도	-9632
기나	-9633
디의	-9634
▁두어	-9635
▁사카	-9636
적이었다	-9637
▁소유하고	-9638
림이	-9639
▁러브	-9640
▁종의	-9641
지사	-9642
▁관중	-9643
▁김대중	-9644
▁일어날	-9645
▁걱	-9646
▁유출	-9647
▁컴파	-9648
▁만나게	-9649
▁방법이다	-9650
▁신용	-9651
▁or	-9652
▁내보	-9653
▁무려	-9654
▁지나치게	-9655
망이	-9656
저를	-9657
▁그중	-9658
▁받기	-9659
▁소환	-9660
▁실종	-9661
▁제수	-9662
▁추모	-9663
▁리비아	-9664
▁토머스	-9665
레오	-9666
▁실려	-9667
▁외야	-9668
▁선교사	-9669
▁한국방송	-9670
▁땄	-9671
거는	-9672
▁베타	-9673
▁시라	-9674
▁학부	-9675
▁세계대	-9676
▁거행	-9677
▁공학	-9678
▁메르	-9679
▁법무	-9680
▁이화	-9681
▁축제	-9682
버스터	-9683
페이스	-9684
▁했다는	-9685
▁72	-9686
▁두개	-9687
▁프랜	-9688
▁그렇지	-9689
▁라이선	-9690
▁강수량은	-9691
▁일어나자	-9692
▁자신에게	-9693
▁총괄	-9694
▁구조로	-9695
▁모두가	-9696
▁바이러	-9697
▁선수를	-9698
아프리카	-9699
▁프로토콜	-9700
밀리	-9701
자원	-9702
▁비슷하게	-9703
▁일으키는	-9704
▁지구에서	-9705
▁페스티벌	-9706
ib	-9707
이즈	-9708
전도	-9709
키를	-9710
▁기체	-9711
▁te	-9712
▁게오	-9713
▁불을	-9714
▁응답	-9715
▁도시가	-9716
▁아버지와	-9717
플라	-9718
▁매카	-9719
사우루스	-9720
▁가도	-9721
▁해를	-9722
▁운행을	-9723
▁일컫는	-9724
▁활약한	-9725
▁필라델피아	-9726
eo	-9727
시타	-9728
▁백악	-9729
▁오리콘	-9730
▁왕위에	-9731
▁관직	-9732
하려면	-9733
▁라운드	-9734
▁목표를	-9735
▁질량은	-9736
▁철도의	-9737
층이	-9738
▁ak	-9739
▁개관	-9740
▁부를	-9741
▁일컬	-9742
▁향한	-9743
▁공사가	-9744
▁내고	-9745
▁자율	-9746
학자인	-9747
▁카자흐	-9748
▁옷을	-9749
▁시절부터	-9750
르드	-9751
▁간부	-9752
▁듯한	-9753
▁복구	-9754
▁팀인	-9755
▁흔들	-9756
원들이	-9757
▁new	-9758
▁대신하여	-9759
▁지정하여	-9760
▁싶어	-9761
▁이슈	-9762
▁포로	-9763
▁붓	-9764
▁역설	-9765
▁가수로	-9766
▁시드니	-9767
▁이상으로	-9768
▁가톨릭교회	-9769
▁팩	-9770
합을	-9771
▁다음에	-9772
▁우라늄	-9773
대회에서	-9774
▁일제강점	-9775
척의	-9776
▁심판	-9777
▁유격	-9778
▁북한의	-9779
▁엉	-9780
런스	-9781
▁과정은	-9782
▁중에서는	-9783
달아	-9784
▁동구	-9785
▁nhk	-9786
▁나이가	-9787
▁서쪽에	-9788
▁주제가	-9789
▁설립했다	-9790
처리	-9791
▁진동	-9792
▁결정적인	-9793
▁꽤	-9794
▁샬	-9795
▁언더	-9796
▁부정적인	-9797
▁분류된다	-9798
▁동화	-9799
▁모드	-9800
▁사기	-9801
▁강제로	-9802
바흐	-9803
▁ad	-9804
▁막내	-9805
▁바닷	-9806
▁급격히	-9807
▁시켜	-9808
▁드러나	-9809
▁사회에	-9810
책임	-9811
▁신비	-9812
▁평행	-9813
년이다	-9814
▁생각해	-9815
▁판타지	-9816
석탑	-9817
▁구리	-9818
▁한쪽	-9819
왔으며	-9820
▁교수는	-9821
하겠다는	-9822
▁시작되어	-9823
▁인정하지	-9824
▁쿨	-9825
바야	-9826
해방	-9827
▁총칭	-9828
▁보여주었다	-9829
▁op	-9830
▁무용	-9831
▁부대는	-9832
▁회사를	-9833
▁인터페이	-9834
▁믹	-9835
려서	-9836
▁길게	-9837
▁제사	-9838
▁클린	-9839
▁속으로	-9840
▁우주의	-9841
▁일본을	-9842
▁태어났	-9843
▁작센	-9844
▁실질적인	-9845
▁엘리베이	-9846
그리	-9847
번에	-9848
일체	-9849
▁밝혔	-9850
▁복지	-9851
▁찾기	-9852
▁아래로	-9853
▁라트비아	-9854
▁왜냐하면	-9855
▁플레이스테이션	-9856
▁부착	-9857
▁안쪽	-9858
ster	-9859
▁다음해	-9860
▁데뷔를	-9861
▁차지한	-9862
▁시나리오	-9863
려면	-9864
풍의	-9865
▁그다	-9866
▁도구	-9867
▁들이	-9868
▁세대	-9869
▁결승전	-9870
▁페르디	-9871
▁공인	-9872
▁얻고	-9873
▁전선	-9874
년간의	-9875
▁섬에서	-9876
브의	-9877
▁낱말	-9878
▁전념	-9879
과정을	-9880
▁대상을	-9881
▁먹고	-9882
▁진흥	-9883
이면서	-9884
로동	-9885
민당	-9886
▁극히	-9887
▁미스	-9888
▁소총	-9889
▁문서는	-9890
▁음악가	-9891
▁충격을	-9892
▁미국에서는	-9893
▁탤	-9894
▁학자	-9895
어지는	-9896
▁달러의	-9897
▁지방을	-9898
▁기록하는	-9899
▁우리나라	-9900
_9	-9901
▁리스	-9902
▁현장	-9903
▁사이가	-9904
▁영어로	-9905
▁에스파냐	-9906
▁엘리자베스	-9907
73	-9908
cd	-9909
▁관념	-9910
▁모방	-9911
▁비단	-9912
▁건물의	-9913
▁마쳤다	-9914
▁아니지만	-9915
▁개최되었다	-9916
▁룩	-9917
▁날아	-9918
▁이원	-9919
▁추격	-9920
▁생각하는	-9921
▁동쪽에	-9922
▁얻는다	-9923
▁여행을	-9924
▁이르렀	-9925
수수	-9926
▁관람	-9927
▁무죄	-9928
▁숨겨	-9929
▁의병	-9930
▁교황의	-9931
▁승리한	-9932
지나	-9933
▁내린	-9934
▁안장	-9935
▁이오	-9936
▁사육	-9937
▁서사	-9938
▁신이	-9939
▁추상	-9940
▁구조가	-9941
▁하드웨어	-9942
▁시작하였고	-9943
청에	-9944
▁사유	-9945
▁지구와	-9946
▁프로레	-9947
iz	-9948
리자	-9949
차와	-9950
▁왕자	-9951
▁최저	-9952
▁하야	-9953
십자	-9954
▁계곡	-9955
▁신속	-9956
▁아트	-9957
▁육성	-9958
▁전인	-9959
▁마리오	-9960
▁밟	-9961
▁co	-9962
▁고성	-9963
▁세미	-9964
▁손자	-9965
▁증기	-9966
▁끝까지	-9967
▁꼴	-9968
감에	-9969
황을	-9970
▁매출	-9971
▁화살	-9972
▁전체가	-9973
▁급행	-9974
▁오세	-9975
▁현저	-9976
크에서	-9977
▁체계를	-9978
▁조선일보	-9979
타케	-9980
▁개발에	-9981
▁댐	-9982
현에	-9983
▁놓은	-9984
▁느낀	-9985
▁아베	-9986
▁관현악	-9987
▁특징이	-9988
바닥	-9989
▁헤라	-9990
▁지혜	-9991
▁쓰였다	-9992
▁영화에	-9993
▁운동은	-9994
▁이야기는	-9995
돌이	-9996
inc	-9997
▁딸을	-9998
▁리얼	-9999
▁영의	-10000
대학원	-10001
도이다	-10002
▁퍼시픽	-10003
런트	-10004
번은	-10005
클린	-10006
▁시트	-10007
▁피부	-10008
년동안	-10009
▁국가로	-10010
▁감지	-10011
▁검증	-10012
▁물고	-10013
▁에버	-10014
▁포크	-10015
▁홈구	-10016
▁발생할	-10017
▁요소가	-10018
▁의미의	-10019
▁측면에서	-10020
▁프랑스에서	-10021
주일	-10022
짜리	-10023
▁의뢰	-10024
▁전도	-10025
▁동물의	-10026
▁리더십	-10027
▁태도를	-10028
▁타이틀곡	-10029
시민	-10030
펜하	-10031
▁걸어	-10032
▁날짜	-10033
▁몸에	-10034
▁리눅스	-10035
▁분배	-10036
▁iso	-10037
▁계절	-10038
▁장난	-10039
▁최후의	-10040
▁높고	-10041
▁신생	-10042
▁계획에	-10043
▁블랙홀	-10044
▁성균관	-10045
▁활성화	-10046
▁발매하였다	-10047
▁맞지	-10048
▁여수	-10049
가지의	-10050
▁ibm	-10051
▁하더라도	-10052
허가	-10053
▁말의	-10054
▁모으	-10055
▁연세	-10056
동이다	-10057
▁소설을	-10058
▁의원은	-10059
▁남아있는	-10060
▁요구했다	-10061
▁이후부터	-10062
▁셈	-10063
▁대처	-10064
▁상반	-10065
▁공사를	-10066
▁장치를	-10067
▁권위	-10068
▁수렴	-10069
▁누르고	-10070
▁생각할	-10071
항의	-10072
▁고쳐	-10073
▁별은	-10074
▁성모	-10075
▁영문	-10076
▁트레	-10077
▁은퇴를	-10078
▁자신도	-10079
▁칭호를	-10080
▁태양을	-10081
▁다큐멘터리	-10082
▁전진	-10083
▁조치	-10084
란히	-10085
▁지고	-10086
▁무기를	-10087
▁북부의	-10088
▁신호를	-10089
▁어려움	-10090
▁출전했다	-10091
글로	-10092
▁교구	-10093
해지는	-10094
▁불교의	-10095
▁중간에	-10096
▁중기의	-10097
범죄	-10098
석기	-10099
해와	-10100
▁구와	-10101
▁미카	-10102
▁액체	-10103
▁억압	-10104
▁진정	-10105
▁솟	-10106
내어	-10107
언은	-10108
▁쇼와	-10109
▁역에	-10110
▁이광	-10111
-11	-10112
▁군수	-10113
▁내야	-10114
▁힘입어	-10115
▁찌	-10116
각은	-10117
봉을	-10118
작이	-10119
카라	-10120
▁광산	-10121
▁보니	-10122
▁어긋	-10123
▁실패하였다	-10124
박한	-10125
▁3·	-10126
▁대관	-10127
▁동래	-10128
▁밀양	-10129
▁영감을	-10130
▁기점으로	-10131
▁학교에서	-10132
?"	-10133
▁협의	-10134
▁추기경	-10135
▁하나이며	-10136
열은	-10137
천이	-10138
▁오빠	-10139
▁진군	-10140
▁평범	-10141
▁후궁	-10142
▁col	-10143
▁단위로	-10144
▁치러진	-10145
녀를	-10146
▁제독	-10147
▁통행	-10148
지역의	-10149
하르트	-10150
▁성립한다	-10151
▁시스템이	-10152
▁프랑스어	-10153
▁모음	-10154
▁출토	-10155
▁작위를	-10156
됐고	-10157
▁버튼	-10158
▁볼리	-10159
▁존중	-10160
▁캄보	-10161
주의가	-10162
▁실패로	-10163
▁지식을	-10164
▁참고로	-10165
▁서식한다	-10166
이후	-10167
▁박탈	-10168
▁것으로서	-10169
▁계속되었다	-10170
▁반해	-10171
즈에서	-10172
▁미나미	-10173
▁사용될	-10174
라미	-10175
량과	-10176
▁순교	-10177
▁밑에서	-10178
▁새누리	-10179
▁생겼다	-10180
▁음반을	-10181
▁출전해	-10182
▁펼쳤다	-10183
▁함으로써	-10184
▁젤	-10185
▁영향력	-10186
▁의회의	-10187
▁결혼했다	-10188
▁훔	-10189
▁나아	-10190
▁보완	-10191
▁이라	-10192
▁에티오	-10193
층을	-10194
▁뜨거운	-10195
▁밀접한	-10196
▁마케팅	-10197
▁바티칸	-10198
롤라이나	-10199
스런	-10200
▁바오로	-10201
▁오하이	-10202
▁일요일	-10203
▁회사가	-10204
▁사건이다	-10205
▁있었다는	-10206
▁fm	-10207
으로의	-10208
세스	-10209
▁로맨	-10210
▁봉사	-10211
▁전한	-10212
▁일본과	-10213
▁치료를	-10214
▁강점기의	-10215
▁한국전쟁	-10216
▁이루어지고	-10217
▁선은	-10218
▁공로로	-10219
▁무승	-10220
렸으나	-10221
▁주식회	-10222
▁분포한다	-10223
▁봐	-10224
서도	-10225
지붕	-10226
포구	-10227
ure	-10228
▁명성	-10229
▁탈환	-10230
군이다	-10231
원들은	-10232
▁사회를	-10233
▁교향곡	-10234
▁상원의	-10235
▁활동하는	-10236
▁매사추세츠	-10237
▁갓	-10238
작의	-10239
창을	-10240
ian	-10241
▁링컨	-10242
▁차가	-10243
▁군대의	-10244
▁음식을	-10245
▁월드컵에서	-10246
반응	-10247
▁기간에	-10248
▁진행된	-10249
▁편입되었다	-10250
▁국가대표팀의	-10251
위대	-10252
▁선구	-10253
▁독립된	-10254
▁이름인	-10255
▁미치	-10256
▁영남	-10257
▁코트	-10258
▁위기를	-10259
▁갇	-10260
변에	-10261
▁곡이	-10262
▁전제	-10263
iver	-10264
▁마을을	-10265
▁배웠다	-10266
▁리투아니아	-10267
만명	-10268
▁고분	-10269
▁드림	-10270
▁시뮬	-10271
▁동명의	-10272
▁물리적	-10273
▁물질을	-10274
▁실시간	-10275
▁1894	-10276
▁회사이다	-10277
왕과	-10278
▁기습	-10279
▁단종	-10280
▁미주	-10281
▁애틀	-10282
▁열고	-10283
▁태종	-10284
▁mar	-10285
▁조건이	-10286
▁디스플레이	-10287
▁위임	-10288
▁모델을	-10289
▁방식이	-10290
▁앱	-10291
생산	-10292
시노	-10293
열대	-10294
채널	-10295
통의	-10296
달라고	-10297
▁최근의	-10298
▁사헌	-10299
▁기록된	-10300
▁와중에	-10301
▁작곡한	-10302
만여	-10303
▁정한	-10304
▁체포되어	-10305
▁깨달	-10306
▁소실	-10307
일에서	-10308
▁준비를	-10309
캠퍼	-10310
▁68	-10311
▁쇼핑	-10312
▁신한	-10313
▁해인	-10314
등으로	-10315
▁경험이	-10316
▁별명을	-10317
▁인물이	-10318
▁끓	-10319
모와	-10320
상규	-10321
▁고발	-10322
▁사사	-10323
▁비로소	-10324
▁음악의	-10325
▁초반에	-10326
▁시리즈는	-10327
레가	-10328
리라	-10329
링은	-10330
▁59	-10331
▁갈릴	-10332
▁바실	-10333
▁의장	-10334
▁이내	-10335
▁입자	-10336
해왔다	-10337
▁감정을	-10338
▁들어온	-10339
▁알렸다	-10340
▁우승에	-10341
▁중심기압	-10342
▁지적했다	-10343
▁곡의	-10344
▁별칭	-10345
▁투옥	-10346
▁부족한	-10347
▁수도인	-10348
▁앓	-10349
메라	-10350
▁도는	-10351
▁부딪	-10352
▁시초	-10353
면에는	-10354
프랑스	-10355
협회는	-10356
▁시호는	-10357
▁프로그램이	-10358
기기	-10359
▁누군	-10360
▁돌고	-10361
▁몰래	-10362
▁무상	-10363
▁이반	-10364
▁주소	-10365
▁힘든	-10366
네스코	-10367
▁새겨져	-10368
▁종류가	-10369
▁고려대학교	-10370
채를	-10371
▁''	-10372
▁허브	-10373
▁그쳤다	-10374
▁박물관	-10375
▁순수한	-10376
▁프레임	-10377
목적	-10378
▁77	-10379
▁경비	-10380
▁달이	-10381
▁믿고	-10382
▁서초	-10383
▁해운	-10384
되지는	-10385
시까지	-10386
▁sou	-10387
▁선보였다	-10388
▁존재하며	-10389
▁텔	-10390
예를	-10391
▁요르	-10392
운동에	-10393
타리오	-10394
▁테이블	-10395
▁관리하는	-10396
her	-10397
▁구동	-10398
▁동년	-10399
▁부수	-10400
▁사천	-10401
▁재활	-10402
▁초등	-10403
놓은	-10404
자책	-10405
▁보지	-10406
▁염색	-10407
▁회담	-10408
브리지	-10409
▁의식을	-10410
▁비즈니스	-10411
턴의	-10412
통합	-10413
▁갤럭	-10414
▁말기	-10415
▁업그	-10416
▁개발이	-10417
▁구간을	-10418
▁대통령에	-10419
▁후쿠시마	-10420
▁넣고	-10421
▁연고지로	-10422
르며	-10423
수아	-10424
▁김용	-10425
▁적고	-10426
거리는	-10427
왕으로	-10428
▁그룹이다	-10429
병원	-10430
▁농림	-10431
▁뛰어나	-10432
▁마이너	-10433
▁슬로베	-10434
▁자리잡고	-10435
라브	-10436
에너	-10437
올로	-10438
년대의	-10439
시부터	-10440
▁분류는	-10441
▁일컫는다	-10442
▁행정구역	-10443
▁일시적으로	-10444
그러	-10445
널드	-10446
▁주석	-10447
▁기능은	-10448
▁기술의	-10449
▁움직임	-10450
▁주도로	-10451
▁맏	-10452
▁구제	-10453
▁전역	-10454
▁쫓아	-10455
▁형법	-10456
▁가리키	-10457
▁국가는	-10458
▁자신과	-10459
누엘	-10460
선이다	-10461
시키며	-10462
▁이후로는	-10463
학회	-10464
▁제압	-10465
▁진짜	-10466
▁업적을	-10467
▁정교회	-10468
네가	-10469
▁선이	-10470
▁위탁	-10471
▁자체를	-10472
▁제조업	-10473
▁종으로	-10474
▁개발되었다	-10475
제프	-10476
▁계몽	-10477
▁밑에	-10478
▁필름	-10479
▁125	-10480
▁김일성	-10481
▁제품을	-10482
▁관할하는	-10483
▁범위	-10484
▁브래	-10485
▁좌절	-10486
▁캠페	-10487
▁불리게	-10488
▁줄여서	-10489
▁한나라당	-10490
▁나쁜	-10491
▁붙은	-10492
▁수습	-10493
▁죽이	-10494
▁교육의	-10495
▁기반의	-10496
▁놓았다	-10497
▁자동으로	-10498
러를	-10499
▁쇼군	-10500
▁중도	-10501
▁첨가	-10502
프로그램	-10503
▁사이타마	-10504
▁하인리히	-10505
▁방송되었다	-10506
프에서	-10507
▁마을의	-10508
▁시절에는	-10509
▁있으면서	-10510
▁진행된다	-10511
마치	-10512
토스	-10513
▁아인	-10514
▁향년	-10515
갔으며	-10516
▁지휘하는	-10517
▁시그	-10518
▁참가하고	-10519
장관	-10520
▁만의	-10521
▁빠진	-10522
▁산다	-10523
▁야당	-10524
방에서	-10525
학적으로	-10526
man	-10527
▁결과에	-10528
▁시설을	-10529
▁시점에서	-10530
▁위치하는	-10531
dp	-10532
자본	-10533
토시	-10534
티모	-10535
▁매개	-10536
▁순천	-10537
▁105	-10538
▁팔레스타	-10539
ime	-10540
▁결코	-10541
린을	-10542
▁라우	-10543
리면서	-10544
▁찾아볼	-10545
고와	-10546
교에	-10547
서야	-10548
▁민사	-10549
▁왕실	-10550
▁피어	-10551
▁건물로	-10552
▁접하며	-10553
▁총선거	-10554
▁학교에	-10555
▁않는다고	-10556
▁대한민국에	-10557
값을	-10558
디가	-10559
르지	-10560
▁직결	-10561
▁성격이	-10562
▁사망하고	-10563
▁일종으로	-10564
양군	-10565
측은	-10566
▁느껴	-10567
▁플랑	-10568
▁여기에는	-10569
역사	-10570
ame	-10571
▁규제	-10572
▁모용	-10573
▁여운	-10574
▁교차로	-10575
▁수술을	-10576
▁조약에	-10577
▁호평을	-10578
▁근처에서	-10579
▁자연스럽게	-10580
인치	-10581
▁안산	-10582
▁민족의	-10583
원군	-10584
▁낙선	-10585
▁냉각	-10586
▁시키	-10587
▁인문	-10588
▁잃었다	-10589
▁주장한	-10590
▁다중	-10591
▁향후	-10592
마르크	-10593
▁먹이를	-10594
▁황해도	-10595
급을	-10596
지휘	-10597
▁면적	-10598
▁도착한	-10599
▁장관을	-10600
▁깨닫	-10601
▁담겨	-10602
▁오고	-10603
▁존속	-10604
▁도서관	-10605
▁참여하고	-10606
제이	-10607
▁강에	-10608
▁거기서	-10609
▁되돌아	-10610
▁디비전	-10611
▁오렌지	-10612
▁맵	-10613
연속	-10614
▁사료	-10615
▁왕복	-10616
일이다	-10617
▁시즌의	-10618
▁최대한	-10619
▁경우에도	-10620
▁펀	-10621
결정	-10622
구나	-10623
순위	-10624
▁과의	-10625
▁다항	-10626
▁카탈	-10627
▁몸무게는	-10628
▁진단	-10629
▁부분의	-10630
▁존재하고	-10631
▁뉘	-10632
찬을	-10633
▁성에	-10634
▁통일신	-10635
▁등지에서	-10636
교와	-10637
놓고	-10638
츠가	-10639
▁단단	-10640
▁춘추	-10641
▁돋	-10642
▁샹	-10643
시즘	-10644
증은	-10645
▁코리아	-10646
▁후보가	-10647
▁상태였다	-10648
가고	-10649
▁수업	-10650
▁알제	-10651
아메리카	-10652
나우	-10653
▁63	-10654
▁측의	-10655
▁북쪽의	-10656
▁대한민국은	-10657
▁문화체육관광부	-10658
크스	-10659
▁목사	-10660
▁불이	-10661
▁지정된	-10662
욕을	-10663
▁넣은	-10664
▁여름에	-10665
▁추측된다	-10666
소방	-10667
▁김재	-10668
▁총대	-10669
▁간단히	-10670
▁사람과	-10671
▁움직임을	-10672
표는	-10673
▁노태	-10674
▁레논	-10675
▁올바	-10676
▁결성된	-10677
▁귀중한	-10678
▁블로그	-10679
▁아사히	-10680
▁않았다고	-10681
▁유네스코	-10682
수사	-10683
팀인	-10684
▁구할	-10685
▁꽃은	-10686
▁드럼	-10687
▁장려	-10688
▁논문을	-10689
▁수학자	-10690
점인	-10691
족에	-10692
▁2.0	-10693
▁인정하고	-10694
림의	-10695
월드	-10696
철의	-10697
▁구출	-10698
▁난징	-10699
▁어휘	-10700
▁토마	-10701
층석탑	-10702
▁정신적	-10703
pr	-10704
▁우즈	-10705
▁속하며	-10706
▁양식을	-10707
▁존재가	-10708
▁비판했다	-10709
▁지속적인	-10710
생은	-10711
▁실린	-10712
▁이인	-10713
강에서	-10714
▁만났다	-10715
▁속도는	-10716
회장	-10717
▁98	-10718
▁현은	-10719
▁유래한	-10720
▁거느리고	-10721
▁직접적으로	-10722
색과	-10723
준의	-10724
▁유언	-10725
▁차기	-10726
▁고려의	-10727
▁내부에	-10728
▁섬이다	-10729
▁중국과	-10730
▁휠	-10731
외선	-10732
지대	-10733
▁숭배	-10734
▁시외	-10735
▁여신	-10736
방으로	-10737
▁마음이	-10738
▁문제의	-10739
ls	-10740
루와	-10741
술의	-10742
위해	-10743
인들	-10744
▁거론	-10745
▁색을	-10746
▁영조	-10747
▁베네딕	-10748
▁오프닝	-10749
씨로	-10750
▁면역	-10751
▁위기	-10752
▁재혼	-10753
증으로	-10754
▁겪었다	-10755
▁과정에	-10756
▁연극배우	-10757
▁얹	-10758
ies	-10759
▁공직	-10760
▁군이	-10761
▁오라	-10762
▁커널	-10763
▁통틀	-10764
▁흥선	-10765
▁경제학	-10766
▁요청을	-10767
실험	-10768
▁기지	-10769
▁밀집	-10770
▁산하에	-10771
▁되었다가	-10772
▁사라졌다	-10773
▁턱	-10774
▁승인을	-10775
▁이래로	-10776
▁있습니다	-10777
위인	-10778
▁화재	-10779
▁잃어버	-10780
▁자세한	-10781
▁제외하면	-10782
▁중요하다	-10783
,8	-10784
제작	-10785
주기	-10786
즈로	-10787
▁김태	-10788
▁스쿨	-10789
▁요금	-10790
▁치명	-10791
소이다	-10792
▁나이지	-10793
▁사고가	-10794
▁아버지를	-10795
▁존재했던	-10796
▁횟	-10797
냈고	-10798
보안	-10799
▁미루	-10800
▁뻗어	-10801
▁일러	-10802
▁조상	-10803
됐으며	-10804
▁안에는	-10805
▁이유를	-10806
▁대통령으로	-10807
▁템	-10808
▁받침	-10809
▁알라	-10810
풍으로	-10811
▁적극적인	-10812
▁에스토니아	-10813
박스	-10814
나갔다	-10815
래스카	-10816
▁물고기	-10817
▁등장했다	-10818
음과	-10819
거리를	-10820
▁135	-10821
▁가지가	-10822
▁도입되었다	-10823
▁이며	-10824
▁전신	-10825
▁함유	-10826
▁1890	-10827
▁광범위한	-10828
~2	-10829
선언	-10830
-16	-10831
▁방패	-10832
▁번식	-10833
▁오타	-10834
▁일조	-10835
▁증권	-10836
▁사우디아	-10837
▁생산하는	-10838
▁체코슬로	-10839
▁선언하였다	-10840
ha	-10841
▁신규	-10842
▁했을	-10843
▁많으며	-10844
▁이스트	-10845
▁일이다	-10846
▁오하이오	-10847
▁펜실베이	-10848
병은	-10849
▁대두	-10850
▁민영	-10851
▁스폰	-10852
▁신념	-10853
▁평면	-10854
▁차량은	-10855
▁이름에서	-10856
ms	-10857
등록	-10858
▁기아	-10859
▁던져	-10860
▁불어	-10861
▁시계	-10862
▁앉아	-10863
▁피에르	-10864
해군	-10865
▁cf	-10866
▁경사	-10867
▁야간	-10868
이트를	-10869
위원으로	-10870
▁날에	-10871
사업을	-10872
▁기초로	-10873
▁모르는	-10874
▁도주	-10875
▁딸인	-10876
▁엔딩	-10877
▁그러던	-10878
▁베드로	-10879
▁선수는	-10880
▁승강장이	-10881
▁민족주의	-10882
산면	-10883
▁바꾼	-10884
▁엔지	-10885
▁컨셉	-10886
▁아름다	-10887
▁이용한다	-10888
▁복귀하였다	-10889
ff	-10890
벤처	-10891
▁알코	-10892
▁독일과	-10893
▁언어의	-10894
▁우승한	-10895
백과	-10896
변이	-10897
스파	-10898
게이머	-10899
▁독일이	-10900
▁진출을	-10901
학교에서	-10902
▁1898	-10903
▁고구려의	-10904
▁프랑크푸	-10905
▁봤	-10906
야만	-10907
▁그날	-10908
▁야쿠	-10909
▁연기를	-10910
▁최상위	-10911
▁가나가와	-10912
코쿠	-10913
희가	-10914
▁붙인	-10915
▁성당	-10916
▁정면	-10917
내셔널	-10918
▁버전의	-10919
▁소속된	-10920
▁승부차	-10921
▁연결된	-10922
▁이론의	-10923
▁톨	-10924
비나	-10925
통이	-10926
▁선종	-10927
▁섭취	-10928
▁요크	-10929
▁피신	-10930
▁한계	-10931
우주연	-10932
▁안드레	-10933
아리	-10934
▁처녀	-10935
▁협박	-10936
▁철도가	-10937
▁도시철도	-10938
▁클럽이다	-10939
▁노리	-10940
▁명에	-10941
▁미노	-10942
슈타인	-10943
▁가지며	-10944
▁그다지	-10945
▁버렸다	-10946
▁불리고	-10947
▁비용을	-10948
▁적합한	-10949
:0	-10950
▁en	-10951
베트남	-10952
▁이벤트	-10953
반은	-10954
▁밤에	-10955
▁통근	-10956
▁표명	-10957
임에도	-10958
▁자금을	-10959
▁아래에서	-10960
▁지나면서	-10961
▁2,000	-10962
▁사우디아라비아	-10963
도어	-10964
스컵	-10965
▁보일	-10966
▁불편	-10967
▁제자	-10968
▁추출	-10969
▁극장판	-10970
▁그리스어	-10971
협의	-10972
▁노트	-10973
▁이룬	-10974
▁여성이	-10975
▁차이는	-10976
▁시내버스	-10977
▁지어졌다	-10978
가스	-10979
▁공격에	-10980
▁아니라고	-10981
-8	-10982
▁고양이	-10983
▁있기도	-10984
주어	-10985
▁변수	-10986
▁즉각	-10987
▁문과에	-10988
▁진출에	-10989
박쥐과에	-10990
▁1899	-10991
액은	-10992
영과	-10993
▁벌인	-10994
▁유저	-10995
▁기록해	-10996
▁남쪽의	-10997
▁변화에	-10998
▁않으나	-10999
▁테니스	-11000
▁멋	-11001
냐는	-11002
▁ro	-11003
▁축출	-11004
▁표방	-11005
우스가	-11006
▁요구를	-11007
▁재능을	-11008
▁다양하다	-11009
▁햇	-11010
노가	-11011
액의	-11012
▁폭넓	-11013
▁기술은	-11014
▁스피드	-11015
▁원인은	-11016
위원회를	-11017
▁기업이다	-11018
▁62	-11019
▁대책	-11020
▁장학	-11021
▁취항	-11022
▁나폴리	-11023
▁이산화	-11024
▁헝가리의	-11025
▁신임	-11026
▁정은	-11027
▁360	-11028
▁파이어	-11029
▁하나였다	-11030
▁프로레슬링	-11031
몬드	-11032
▁매달	-11033
▁영상을	-11034
▁확인되었다	-11035
▁김규	-11036
교육을	-11037
▁스타리그	-11038
기준	-11039
루에	-11040
▁76	-11041
▁연금	-11042
▁주류	-11043
▁타카	-11044
▁다음이	-11045
▁두는	-11046
▁승계	-11047
▁전당	-11048
▁종은	-11049
▁국립공	-11050
▁백제의	-11051
▁자체는	-11052
▁부문에서	-11053
해양	-11054
▁경신	-11055
▁분화	-11056
▁사자	-11057
▁상상	-11058
▁세균	-11059
▁총재	-11060
▁지휘관	-11061
▁해의	-11062
겼으며	-11063
▁국내외	-11064
▁스튜어	-11065
▁종로구	-11066
▁기독교의	-11067
▁온타리오	-11068
▁발트	-11069
▁트루	-11070
로부터의	-11071
▁그렇지만	-11072
▁배치되어	-11073
.25	-11074
▁취재	-11075
▁공동체	-11076
▁관리를	-11077
▁나오지	-11078
▁물질의	-11079
▁제안을	-11080
▁결혼하였다	-11081
사태	-11082
악한	-11083
▁기름	-11084
▁발을	-11085
▁용의	-11086
▁패키	-11087
▁부동산	-11088
▁소설가	-11089
▁있었을	-11090
▁대학교는	-11091
▁바이러스	-11092
▁ag	-11093
▁고수	-11094
▁나눠	-11095
▁원내	-11096
▁밴드의	-11097
▁아이치	-11098
▁인접한	-11099
▁파일을	-11100
▁표현을	-11101
▁냄	-11102
일으	-11103
▁바퀴	-11104
▁부적	-11105
▁입성	-11106
▁자를	-11107
ft	-11108
▁리가	-11109
▁비유	-11110
▁브라이언	-11111
▁임시정부	-11112
천여	-11113
▁빛이	-11114
▁손꼽	-11115
▁출전한	-11116
▁카를로	-11117
▁환경을	-11118
▁황제로	-11119
▁생각한다	-11120
할때	-11121
▁저택	-11122
▁저기압	-11123
▁대학교에	-11124
▁신설되었다	-11125
▁것인데	-11126
▁여부를	-11127
▁의원이	-11128
▁어머니의	-11129
▁물건	-11130
▁빌리	-11131
▁시즈	-11132
▁존경	-11133
호선은	-11134
▁느낌을	-11135
▁장군의	-11136
▁문화방송	-11137
▁진행되고	-11138
▁코무네다	-11139
~5	-11140
▁ds	-11141
▁나눈	-11142
▁상용	-11143
▁시범	-11144
▁말기에	-11145
▁주장은	-11146
▁참가하는	-11147
~4	-11148
▁엿	-11149
측에	-11150
▁감행	-11151
▁중소	-11152
▁밖에도	-11153
▁제도가	-11154
빈은	-11155
제한	-11156
▁드문	-11157
▁스톡	-11158
▁유가	-11159
ys	-11160
▁장로	-11161
▁초신	-11162
▁교육과	-11163
▁진출했다	-11164
▁옐	-11165
설은	-11166
▁코어	-11167
쳤으며	-11168
무기	-11169
풍속	-11170
▁평택	-11171
▁한층	-11172
▁희귀	-11173
▁제도는	-11174
▁학교의	-11175
▁이집트의	-11176
구성	-11177
월한	-11178
▁오바	-11179
▁화석	-11180
▁문자를	-11181
▁정해진	-11182
▁제사를	-11183
▁떨어지는	-11184
▁여객철도의	-11185
co	-11186
▁그냥	-11187
▁딸로	-11188
▁엄격	-11189
▁초록	-11190
▁회고	-11191
집에	-11192
축을	-11193
▁골프	-11194
운드를	-11195
▁2-1	-11196
▁독일어	-11197
▁어려워	-11198
▁이라고	-11199
▁물러났다	-11200
량에	-11201
▁지방자치	-11202
▁추정되는	-11203
▁연세대학교	-11204
버러	-11205
▁분당	-11206
▁아는	-11207
자라고	-11208
▁네이버	-11209
▁제국을	-11210
▁방식이다	-11211
▁부분으로	-11212
▁펜실베이니아	-11213
qu	-11214
골로	-11215
▁김포	-11216
▁식별	-11217
프라이	-11218
▁미국을	-11219
▁보호를	-11220
▁엄격한	-11221
▁토요일	-11222
▁자유로운	-11223
▁옳	-11224
약성	-11225
ens	-11226
▁밀어	-11227
까지만	-11228
버렸다	-11229
age	-11230
▁ab	-11231
▁서포	-11232
▁전세	-11233
▁직선	-11234
류이다	-11235
▁비판이	-11236
▁사이드	-11237
▁전체에	-11238
▁그들에게	-11239
▁성우이다	-11240
간은	-11241
로이	-11242
_11	-11243
▁뒤집	-11244
▁섬유	-11245
▁이진	-11246
▁임기	-11247
▁만나는	-11248
▁도로이다	-11249
▁깎	-11250
집이	-11251
▁김상	-11252
▁부호	-11253
▁소지	-11254
▁최적	-11255
▁경찰은	-11256
▁되지만	-11257
▁어머니가	-11258
▁의미에서	-11259
▁프로게이머	-11260
▁목을	-11261
▁어워	-11262
정책을	-11263
▁불러일으	-11264
▁올림픽의	-11265
▁평균자책	-11266
회의에서	-11267
▁긍정적인	-11268
▁한미	-11269
공무원	-11270
▁벌어졌다	-11271
▁시칠리아	-11272
열에	-11273
▁공민	-11274
▁관직을	-11275
▁아마도	-11276
돌을	-11277
풍이	-11278
▁kg	-11279
▁까닭	-11280
▁동국	-11281
▁라스	-11282
▁조명	-11283
인들과	-11284
▁man	-11285
▁박쥐의	-11286
▁웨일스	-11287
▁장군이	-11288
▁포르투갈의	-11289
국어	-11290
카타	-11291
▁왕을	-11292
스키는	-11293
▁것임을	-11294
▁더욱이	-11295
▁유래된	-11296
▁총사령	-11297
▁서식하는	-11298
▁발견하였다	-11299
판과	-11300
▁부사	-11301
▁헤드	-11302
렸는데	-11303
▁시장에	-11304
▁들어간다	-11305
커스	-11306
▁대웅	-11307
▁로저	-11308
▁부근에	-11309
▁용어를	-11310
▁인근의	-11311
▁데이터베이스	-11312
▁닭	-11313
림은	-11314
무는	-11315
설에	-11316
파르	-11317
▁소니	-11318
▁가까워	-11319
▁수상한	-11320
▁급제하여	-11321
▁월드컵에	-11322
▁자본주의	-11323
▁당대	-11324
▁떠올	-11325
▁산의	-11326
▁순회	-11327
▁식량	-11328
▁어른	-11329
드리아	-11330
베르토	-11331
학교의	-11332
▁나가는	-11333
▁현재에	-11334
▁아리스토	-11335
▁대거	-11336
▁상장	-11337
▁조리	-11338
▁최악의	-11339
▁친일파	-11340
도사	-11341
라리	-11342
연방	-11343
▁종족	-11344
▁편곡	-11345
케라톱	-11346
▁출시한	-11347
▁디자인을	-11348
▁world	-11349
▁가짜	-11350
▁선과	-11351
▁제트	-11352
▁줄기	-11353
▁천도	-11354
▁패한	-11355
하자는	-11356
▁레이저	-11357
▁코드를	-11358
▁사망하자	-11359
to	-11360
▁펌	-11361
감은	-11362
▁가죽	-11363
▁매입	-11364
▁원리	-11365
라에서	-11366
▁경계로	-11367
▁역임한	-11368
▁그리스도의	-11369
▁셸	-11370
▁얀	-11371
레아	-11372
모에	-11373
코와	-11374
현과	-11375
▁대피	-11376
▁불꽃	-11377
▁상류	-11378
▁투구	-11379
어지고	-11380
▁도미니	-11381
▁키프로	-11382
▁차원에서	-11383
발이	-11384
▁김옥	-11385
▁등용	-11386
▁목조	-11387
▁미즈	-11388
▁성취	-11389
▁기념물	-11390
▁전통을	-11391
now	-11392
▁96	-11393
▁쓰기	-11394
▁쓰지	-11395
▁이남	-11396
▁환경에	-11397
결과	-11398
-12	-11399
▁경력	-11400
지는데	-11401
천으로	-11402
▁중국에	-11403
▁협상을	-11404
기게	-11405
팀의	-11406
▁낭만	-11407
▁미토	-11408
▁에디	-11409
▁우호	-11410
▁해주	-11411
계약을	-11412
▁세상에	-11413
▁전력을	-11414
▁주민들은	-11415
▁헌법재판	-11416
강은	-11417
반이	-11418
품이	-11419
▁권고	-11420
▁오를	-11421
▁조조	-11422
▁최후	-11423
▁호의	-11424
가들은	-11425
▁2.5	-11426
▁전투기	-11427
▁알려지게	-11428
▁참여하는	-11429
쟁이	-11430
▁궁극	-11431
▁나올	-11432
▁몸이	-11433
▁개념이	-11434
▁사람도	-11435
▁이론에	-11436
▁정신을	-11437
반에	-11438
변의	-11439
자스	-11440
▁곳의	-11441
▁영동	-11442
▁이노	-11443
정에서	-11444
▁니콜라	-11445
티나	-11446
▁카타	-11447
▁합작	-11448
현으로	-11449
▁닌텐도	-11450
▁타격을	-11451
▁프랑스에	-11452
▁학자들은	-11453
▁굿	-11454
▁초과	-11455
▁최하	-11456
학적인	-11457
▁무료로	-11458
▁분명히	-11459
▁조선에	-11460
▁쳐들어	-11461
과학기술	-11462
▁내용으로	-11463
▁등재	-11464
▁쏟아	-11465
▁중독	-11466
▁채워	-11467
스포츠	-11468
▁할머니	-11469
릴라	-11470
ace	-11471
▁개교	-11472
▁성이	-11473
바이잔	-11474
암으로	-11475
▁기초를	-11476
▁몬스터	-11477
▁몬트리	-11478
▁과거에는	-11479
▁스스로를	-11480
▁날카	-11481
▁디렉	-11482
▁상원	-11483
▁일방	-11484
▁조달	-11485
▁선거를	-11486
▁1902	-11487
▁김수	-11488
▁재무	-11489
▁정조	-11490
▁다룬다	-11491
▁장면을	-11492
▁플레이어는	-11493
ry	-11494
링을	-11495
판매	-11496
▁고사	-11497
▁일명	-11498
▁선발로	-11499
▁전두환	-11500
▁확실히	-11501
▁결혼하여	-11502
▁도요토미	-11503
▁취임하였다	-11504
-7	-11505
감과	-11506
▁담긴	-11507
▁에미	-11508
밀하게	-11509
본으로	-11510
선수권	-11511
▁도입하였다	-11512
▁맑	-11513
▁유죄	-11514
▁적지	-11515
▁mo	-11516
▁국소	-11517
▁부천	-11518
▁축하	-11519
루미늄	-11520
자들에	-11521
▁kia	-11522
▁밝히고	-11523
▁이유가	-11524
▁차량이	-11525
▁가고시마	-11526
▁정도였다	-11527
▁케네	-11528
예정자	-11529
▁조선인민	-11530
▁군단	-11531
▁아바	-11532
▁애덤	-11533
▁규모는	-11534
▁시위를	-11535
▁아열대	-11536
▁어려서	-11537
▁차량을	-11538
▁획득한	-11539
▁활약했다	-11540
널티	-11541
퍼는	-11542
▁법인	-11543
▁좌표	-11544
▁것보다	-11545
▁관련한	-11546
제르바이잔	-11547
두를	-11548
바논	-11549
▁만남	-11550
▁성주	-11551
▁예배	-11552
▁성공회	-11553
▁일리노	-11554
▁제국에	-11555
▁직전에	-11556
매매	-11557
인한	-11558
ory	-11559
▁띠고	-11560
▁섬과	-11561
▁군대에	-11562
▁회의를	-11563
mb	-11564
▁유튜	-11565
▁응원	-11566
▁이끈	-11567
▁일대를	-11568
박사	-11569
▁굉장	-11570
▁사원	-11571
▁최연	-11572
사이드	-11573
▁고유의	-11574
▁구분된다	-11575
▁노동조합	-11576
스틴	-11577
▁67	-11578
▁돌연	-11579
▁정사	-11580
이거나	-11581
자라는	-11582
▁선정한	-11583
▁장거리	-11584
▁부분적으로	-11585
따라	-11586
end	-11587
▁때인	-11588
▁부부	-11589
▁비평	-11590
▁사토	-11591
▁오오	-11592
▁중일	-11593
운동의	-11594
적이지	-11595
▁미스터	-11596
▁버전이	-11597
▁단기	-11598
▁배구	-11599
▁히타	-11600
으려고	-11601
▁공부를	-11602
▁역까지	-11603
▁프톨레	-11604
▁피하기	-11605
▁형사소송	-11606
▁아일랜드의	-11607
들여	-11608
▁문명	-11609
▁상수	-11610
▁업체	-11611
▁원수	-11612
▁대표적	-11613
▁말하면	-11614
fl	-11615
빌딩	-11616
팀을	-11617
▁강연	-11618
▁라파	-11619
▁부유한	-11620
셰비	-11621
▁디자	-11622
▁빌려	-11623
▁상처	-11624
▁정해	-11625
▁제노	-11626
▁해수	-11627
▁연구소	-11628
▁향하는	-11629
▁이루어지는	-11630
!!	-11631
▁담배	-11632
▁윤보	-11633
▁피겨	-11634
▁바르샤	-11635
▁용도로	-11636
▁제치고	-11637
▁처음부터	-11638
▁왓	-11639
▁입체	-11640
▁자문	-11641
▁합창	-11642
▁용어로	-11643
▁한국시리즈	-11644
거를	-11645
타입	-11646
_15	-11647
▁공익	-11648
▁잡은	-11649
기독교	-11650
있었다	-11651
파이어	-11652
▁게이지	-11653
▁반도의	-11654
▁병으로	-11655
▁유학을	-11656
▁잡았다	-11657
▁즉위한	-11658
▁차례의	-11659
▁이때부터	-11660
▁이어진다	-11661
▁광둥	-11662
▁보전	-11663
▁보헤	-11664
▁심의	-11665
층으로	-11666
행위를	-11667
▁본사를	-11668
▁위험한	-11669
▁시장에서	-11670
▁결정되었다	-11671
감한	-11672
미쓰	-11673
참모	-11674
▁디오	-11675
▁문장	-11676
▁연꽃	-11677
▁해소	-11678
라이어	-11679
▁가벼운	-11680
▁남기고	-11681
▁진나라	-11682
▁질량이	-11683
▁5·	-11684
▁호세	-11685
▁국방부	-11686
▁기자회	-11687
▁시기를	-11688
아파	-11689
운을	-11690
▁버려	-11691
▁우편	-11692
▁자택	-11693
위이다	-11694
▁노르웨이의	-11695
▁만족시키는	-11696
▁수록예정자	-11697
대책	-11698
운영	-11699
▁no	-11700
▁가량	-11701
▁난민	-11702
▁책의	-11703
▁해밀	-11704
사우루	-11705
▁게임이	-11706
▁견해를	-11707
▁배우로	-11708
▁정치를	-11709
▁취하고	-11710
▁아버지인	-11711
받게	-11712
▁누르	-11713
▁지형	-11714
▁마음에	-11715
▁산하의	-11716
▁할아버지	-11717
▁규격	-11718
▁난다	-11719
▁본부	-11720
▁입각	-11721
▁전염	-11722
법이다	-11723
▁기사를	-11724
▁왕국은	-11725
▁시대부터	-11726
me	-11727
▁박헌	-11728
하자면	-11729
▁면이다	-11730
▁국제적인	-11731
▁주어진다	-11732
여성	-11733
▁봉건	-11734
▁신시	-11735
▁씨의	-11736
▁제곱	-11737
▁주오	-11738
▁압력을	-11739
▁함수의	-11740
▁엽	-11741
요는	-11742
후가	-11743
▁먹을	-11744
▁위치는	-11745
▁독립운동가	-11746
사지	-11747
학부	-11748
▁고백	-11749
▁기슭	-11750
▁뉴저	-11751
▁신선	-11752
▁아랫	-11753
▁이루며	-11754
▁역사적인	-11755
병에	-11756
산맥	-11757
▁우울	-11758
▁이케	-11759
▁주차	-11760
▁루이지	-11761
▁설명하는	-11762
모니	-11763
법칙	-11764
▁땄다	-11765
▁이윤	-11766
▁것들이	-11767
▁밴드는	-11768
▁달성했다	-11769
▁승격되었다	-11770
더니	-11771
무역	-11772
▁up	-11773
▁교역	-11774
▁문재	-11775
▁이가	-11776
▁주위	-11777
▁연합군	-11778
▁설명했다	-11779
▁중단되었다	-11780
르에	-11781
불을	-11782
▁부가	-11783
▁아부	-11784
▁기간을	-11785
▁나라는	-11786
▁뮤지션	-11787
▁차량의	-11788
▁멕시코의	-11789
▁자격으로	-11790
해온	-11791
▁건담	-11792
▁마약	-11793
▁부설	-11794
▁설도	-11795
화이다	-11796
▁시절의	-11797
요를	-11798
▁모형	-11799
▁전라도	-11800
▁형태이다	-11801
▁김진	-11802
▁양이	-11803
기록을	-11804
시키지	-11805
▁니가타	-11806
▁서재필	-11807
▁주위를	-11808
▁정치적인	-11809
▁해상에서	-11810
봉은	-11811
▁발칸	-11812
▁병역	-11813
▁술을	-11814
▁경기의	-11815
▁비평가	-11816
▁팀으로	-11817
▁사회에서	-11818
▁마운	-11819
▁어뢰	-11820
▁같은해	-11821
▁성능을	-11822
▁야마토	-11823
▁한성부	-11824
▁끊임없이	-11825
▁다운로드	-11826
▁옴	-11827
▁페어	-11828
감으로	-11829
위원장	-11830
▁왕국을	-11831
▁강도	-11832
▁따온	-11833
▁산림	-11834
▁성사	-11835
▁시흥	-11836
▁잡혀	-11837
▁규모로	-11838
▁팀에서	-11839
대교	-11840
hpa	-11841
▁갈등을	-11842
▁뒤에도	-11843
▁자유주의	-11844
버스터미널	-11845
만원	-11846
의원	-11847
▁모친	-11848
▁비주	-11849
▁석탑	-11850
▁소매	-11851
▁쇼트	-11852
▁얻지	-11853
▁즐겨	-11854
문에서	-11855
▁아르헨티나의	-11856
▁본거	-11857
라이트	-11858
▁공화당	-11859
▁역사의	-11860
▁온도가	-11861
▁의미는	-11862
▁페르난	-11863
무가	-11864
터스	-11865
▁숫자	-11866
▁주행	-11867
▁직면	-11868
▁탐지	-11869
▁게르만	-11870
▁단어는	-11871
▁중국어	-11872
▁역임하고	-11873
▁페르디난	-11874
공격	-11875
보도	-11876
▁마오	-11877
▁통용	-11878
▁하마	-11879
들과는	-11880
▁가마쿠라	-11881
▁견제	-11882
▁대가	-11883
▁봉쇄	-11884
▁아예	-11885
▁저명한	-11886
▁구마모토	-11887
▁연결된다	-11888
▁흥선대원	-11889
fm	-11890
대륙	-11891
▁둥글	-11892
▁산출	-11893
나가는	-11894
▁곡이다	-11895
▁목표는	-11896
▁부분에서	-11897
▁주민들이	-11898
린과	-11899
물질	-11900
커의	-11901
▁61	-11902
▁각자	-11903
▁공손	-11904
▁문예	-11905
▁서정	-11906
▁시청률	-11907
▁투수로	-11908
▁트랜스	-11909
▁몬트리올	-11910
▁비밀리에	-11911
님은	-11912
로니	-11913
에다	-11914
한은	-11915
▁모은	-11916
▁백색	-11917
▁아기	-11918
▁재현	-11919
▁증손	-11920
▁벼슬을	-11921
▁패배를	-11922
4,	-11923
것을	-11924
▁10%	-11925
▁휴스턴	-11926
▁런던에서	-11927
극장	-11928
피의	-11929
▁이의	-11930
▁포병	-11931
▁서울의	-11932
▁시장을	-11933
▁없었기	-11934
▁차이로	-11935
▁진행하고	-11936
절한	-11937
준이	-11938
▁수련	-11939
▁지주	-11940
▁그려진	-11941
▁문서를	-11942
▁실질적으로	-11943
▁닦	-11944
▁톈	-11945
도비	-11946
라기	-11947
무로	-11948
체제	-11949
▁남원	-11950
▁삼촌	-11951
▁안보	-11952
▁유교	-11953
▁지각	-11954
▁그룹은	-11955
▁남쪽은	-11956
▁보유한	-11957
▁소송을	-11958
▁아무도	-11959
▁음악에	-11960
▁메시지를	-11961
▁하나님의	-11962
왔던	-11963
▁말씀	-11964
▁중기	-11965
▁회계	-11966
르에서	-11967
▁독립적인	-11968
▁프로젝트를	-11969
▁sa	-11970
▁불확	-11971
▁호위	-11972
사들이	-11973
▁문화가	-11974
▁새로이	-11975
▁센고쿠	-11976
▁1901	-11977
께서	-11978
▁바빌	-11979
▁사면	-11980
▁옹립	-11981
▁체류	-11982
▁세력의	-11983
▁가져왔다	-11984
▁전체적인	-11985
▁사살	-11986
▁싸워	-11987
▁잭슨	-11988
▁구스타	-11989
▁자회사	-11990
▁정리한	-11991
▁회장을	-11992
▁1-0	-11993
▁굉장히	-11994
▁기회가	-11995
▁도카이	-11996
하와	-11997
▁옥스	-11998
▁평범한	-11999
▁연합군의	-12000
▁표현하는	-12001
▁대치	-12002
▁리만	-12003
▁영지	-12004
▁도시에	-12005
▁역사에	-12006
▁육군의	-12007
▁1897	-12008
▁만일	-12009
▁진급	-12010
올림픽	-12011
▁사랑의	-12012
▁아제르바이잔	-12013
근은	-12014
▁고민	-12015
▁등극	-12016
▁스콧	-12017
▁비율이	-12018
▁손으로	-12019
▁예수의	-12020
리그에서	-12021
▁머물렀다	-12022
bl	-12023
니시	-12024
조나	-12025
▁마루	-12026
▁쌓은	-12027
▁연쇄	-12028
▁컬러	-12029
▁와이번	-12030
▁정권의	-12031
마로	-12032
▁갈아	-12033
▁적혀	-12034
길이	-12035
파인	-12036
품의	-12037
▁결론	-12038
▁말미	-12039
양으로	-12040
품으로	-12041
▁넘어가	-12042
▁서유럽	-12043
▁서쪽은	-12044
▁설치한	-12045
▁행사를	-12046
▁되어있다	-12047
▁그레고리오	-12048
▁거울	-12049
▁척추	-12050
▁파스	-12051
▁하락	-12052
▁따른다	-12053
▁방사성	-12054
▁센다이	-12055
▁언어는	-12056
▁얼굴을	-12057
▁5,000	-12058
▁고등학교를	-12059
강이	-12060
그의	-12061
집은	-12062
▁간호	-12063
▁모서	-12064
▁산소	-12065
▁수동	-12066
▁카롤	-12067
▁무대를	-12068
▁알루미늄	-12069
국장	-12070
▁꽃이	-12071
▁에콰	-12072
▁응시	-12073
▁효고	-12074
▁물러나	-12075
▁with	-12076
당해	-12077
예프	-12078
운이	-12079
조한	-12080
▁창의	-12081
왕후의	-12082
▁대전이	-12083
▁본인의	-12084
▁아스널	-12085
▁정도를	-12086
▁중의원	-12087
▁대한민국과	-12088
yp	-12089
▁시골	-12090
▁시점	-12091
누스는	-12092
▁리그를	-12093
▁모양이	-12094
▁정권이	-12095
▁죽였다	-12096
▁지키는	-12097
▁프톨레마이	-12098
구역	-12099
블리	-12100
▁실전	-12101
학교는	-12102
▁함부르크	-12103
▁카자흐스탄	-12104
나미	-12105
도바	-12106
멘트	-12107
탄의	-12108
▁고래	-12109
▁신탁	-12110
▁유식	-12111
▁성으로	-12112
▁이곳을	-12113
▁나머지는	-12114
▁3,000	-12115
금과	-12116
▁맥스	-12117
▁휴전	-12118
공산당	-12119
▁50%	-12120
▁때에도	-12121
▁사이버	-12122
▁애틀랜	-12123
▁통틀어	-12124
▁기록했고	-12125
-17	-12126
▁인생	-12127
결합	-12128
디나	-12129
주자	-12130
▁dr	-12131
▁보게	-12132
▁인격	-12133
▁정무	-12134
▁폭스	-12135
▁붙여진	-12136
▁예이다	-12137
▁존재할	-12138
▁1903	-12139
▁해당된다	-12140
크리	-12141
후는	-12142
▁신축	-12143
▁완벽한	-12144
▁시작하였으며	-12145
▁높게	-12146
▁문법	-12147
▁정렬	-12148
▁출산	-12149
▁일대에	-12150
▁지구를	-12151
▁목소리를	-12152
▁실시하고	-12153
하로	-12154
히로	-12155
ial	-12156
▁밝힌	-12157
▁전동	-12158
▁헬륨	-12159
▁호응	-12160
클랜드	-12161
▁가지의	-12162
▁나가노	-12163
▁바이오	-12164
▁알코올	-12165
▁딘	-12166
월과	-12167
▁cj	-12168
▁돌을	-12169
▁선사	-12170
▁파나	-12171
▁규정에	-12172
으로부터의	-12173
소녀	-12174
전인	-12175
▁리우	-12176
▁아홉	-12177
렸다고	-12178
▁더이상	-12179
▁뚜렷한	-12180
▁발언을	-12181
▁투표를	-12182
▁남구	-12183
▁더해	-12184
▁사고를	-12185
▁낸다	-12186
▁무소	-12187
▁영유	-12188
▁일체	-12189
이트는	-12190
▁삿포로	-12191
▁환경에서	-12192
심은	-12193
ica	-12194
▁별이	-12195
▁손가락	-12196
▁시리즈를	-12197
▁입장에서	-12198
▁쇄	-12199
였을	-12200
▁맞고	-12201
▁장덕	-12202
▁협약	-12203
들에게는	-12204
▁게임으로	-12205
▁뭉	-12206
우드	-12207
페란	-12208
플렉	-12209
▁배신	-12210
▁오쿠	-12211
▁왕세	-12212
상규명	-12213
▁동생인	-12214
▁정보가	-12215
▁건설되었다	-12216
았기	-12217
테는	-12218
▁설탕	-12219
▁영등	-12220
▁드러내	-12221
▁전반에	-12222
세기부터	-12223
▁유지하는	-12224
▁컬럼비아	-12225
▁얽	-12226
웠고	-12227
코드	-12228
▁복소	-12229
▁지능	-12230
여명의	-12231
▁경찰에	-12232
▁캄보디아	-12233
물인	-12234
세트	-12235
▁북구	-12236
▁사절	-12237
▁세속	-12238
았다고	-12239
▁모델이	-12240
▁산업의	-12241
▁코스타	-12242
▁클럽은	-12243
▁스코틀랜드의	-12244
암은	-12245
줬다	-12246
▁뜻은	-12247
▁물의	-12248
▁평창	-12249
▁전하는	-12250
▁점령한	-12251
▁시베리아	-12252
▁에티오피아	-12253
▁드래프트에서	-12254
억원	-12255
표가	-12256
▁id	-12257
▁nc	-12258
▁견해	-12259
▁하부	-12260
▁3.1	-12261
▁가문은	-12262
▁레바논	-12263
▁대학교를	-12264
▁프로그램에	-12265
가수	-12266
소득	-12267
주간	-12268
▁스칼	-12269
▁유년	-12270
▁드물게	-12271
▁살았던	-12272
▁파이널	-12273
▁받았지만	-12274
평론	-12275
▁동위	-12276
▁이차	-12277
▁축적	-12278
▁스타일	-12279
▁의미하며	-12280
▁결정하였다	-12281
무스	-12282
▁당일	-12283
▁세자	-12284
▁작아	-12285
▁도입된	-12286
▁뒷받침	-12287
▁잠수함	-12288
▁경기장이다	-12289
▁제주특별자치도	-12290
▁누가	-12291
▁충주	-12292
▁고통을	-12293
▁매카트	-12294
▁승무원	-12295
▁실력을	-12296
▁열린다	-12297
▁르네상스	-12298
▁고체	-12299
▁담아	-12300
▁모나	-12301
▁미디	-12302
▁품고	-12303
위원을	-12304
▁싱글로	-12305
▁영국에	-12306
고리	-12307
아들	-12308
ust	-12309
▁맞은	-12310
▁분출	-12311
▁궤도를	-12312
▁비율은	-12313
▁올리고	-12314
▁스위스의	-12315
own	-12316
▁석가	-12317
▁트럼	-12318
▁런던의	-12319
▁불가능한	-12320
마일	-12321
업의	-12322
▁대학생	-12323
▁없어서	-12324
▁지냈고	-12325
분석	-12326
▁베니	-12327
▁성서	-12328
▁세이부	-12329
▁안으로	-12330
개와	-12331
서울	-12332
순은	-12333
▁값이	-12334
▁생략	-12335
▁양호	-12336
▁이식	-12337
▁제의	-12338
▁호출	-12339
셈부르크	-12340
다를	-12341
대손	-12342
▁ed	-12343
▁깨끗	-12344
▁필사	-12345
▁각국의	-12346
▁들어갈	-12347
▁영향이	-12348
▁이어진	-12349
▁브라우저	-12350
▁소속이다	-12351
행에	-12352
홀름	-12353
▁so	-12354
▁거제	-12355
▁카스	-12356
▁대도시	-12357
▁멜로디	-12358
▁물체의	-12359
▁자유형	-12360
▁기록으로	-12361
▁솜	-12362
루션	-12363
▁김기	-12364
▁연령	-12365
▁동쪽은	-12366
▁스티브	-12367
▁음악은	-12368
▁인상을	-12369
▁개발하고	-12370
▁주장하며	-12371
pl	-12372
▁실망	-12373
▁중복	-12374
▁테레	-12375
▁펠리	-12376
ment	-12377
▁대법원	-12378
▁물건을	-12379
▁표면에	-12380
테르부르크	-12381
집의	-12382
▁랜드	-12383
▁브뤼	-12384
▁장성	-12385
▁침투	-12386
▁있는지	-12387
버린	-12388
▁단축	-12389
▁삼국사	-12390
▁상태의	-12391
▁부근에서	-12392
살의	-12393
테면	-12394
▁돌입	-12395
▁법의	-12396
▁싶은	-12397
▁노선의	-12398
▁뒤이어	-12399
▁작용을	-12400
▁트라이	-12401
▁확실한	-12402
▁형성되어	-12403
덕션	-12404
본의	-12405
▁양국	-12406
▁와일	-12407
▁주체	-12408
전이다	-12409
▁창원시	-12410
▁출신인	-12411
▁현재도	-12412
▁계획이다	-12413
▁원더	-12414
▁조언	-12415
▁한명	-12416
해주는	-12417
▁기존에	-12418
▁투수가	-12419
▁설명한다	-12420
▁일리노이	-12421
▁불가능하다	-12422
록을	-12423
정원	-12424
▁낳은	-12425
▁넓게	-12426
▁띤다	-12427
▁로즈	-12428
▁부서	-12429
▁실력	-12430
▁3·1	-12431
▁갤럭시	-12432
▁성장을	-12433
▁프랑스가	-12434
▁해결하기	-12435
,9	-12436
▁몫	-12437
스기	-12438
▁거북	-12439
▁카디	-12440
▁각본을	-12441
▁원인을	-12442
▁러시아는	-12443
▁선수단은	-12444
▁승강장을	-12445
대학교에서	-12446
ae	-12447
▁메타	-12448
▁신부	-12449
▁점에	-12450
▁플러	-12451
▁활발히	-12452
▁선수로서	-12453
▁점령하고	-12454
열차	-12455
▁동참	-12456
▁부지	-12457
▁양반	-12458
▁이준	-12459
▁다케다	-12460
▁요새를	-12461
벌을	-12462
즈카	-12463
▁ng	-12464
스트리	-12465
▁동안의	-12466
▁1860	-12467
▁평가했다	-12468
▁학생들의	-12469
mp	-12470
정당	-12471
▁복제	-12472
▁지점	-12473
▁집계	-12474
▁충남	-12475
▁기여를	-12476
▁보호하기	-12477
▁콘스탄티노폴리스	-12478
신도	-12479
▁권유	-12480
▁트래	-12481
▁보다는	-12482
▁부대가	-12483
▁북쪽은	-12484
▁연구의	-12485
▁전역에	-12486
▁미시시피	-12487
▁볼리비아	-12488
▁차지하며	-12489
▁천연기념	-12490
교수	-12491
사나	-12492
▁소모	-12493
▁헤비	-12494
▁pla	-12495
▁레인저	-12496
▁음반은	-12497
▁하에서	-12498
캐롤라이나	-12499
▁시작하면서	-12500
▁데뷔하였으며	-12501
분과	-12502
▁시공	-12503
▁위헌	-12504
▁종속	-12505
▁크기를	-12506
▁트리플	-12507
▁휘하의	-12508
▁담당했다	-12509
▁드라이버	-12510
▁나열	-12511
▁유아	-12512
▁격렬한	-12513
▁과정이	-12514
▁나란히	-12515
▁아래는	-12516
▁결정하는	-12517
▁공격하여	-12518
▁형성하고	-12519
▁씌	-12520
▁놀이	-12521
▁암흑	-12522
▁위와	-12523
만명의	-12524
▁남북으로	-12525
▁넬	-12526
▁쉐	-12527
발은	-12528
에의	-12529
▁거뒀	-12530
▁이북	-12531
▁진공	-12532
▁내려가	-12533
▁실패한	-12534
시켰으며	-12535
약한	-12536
ite	-12537
▁국어	-12538
▁맺은	-12539
▁점프	-12540
▁토요	-12541
스라는	-12542
이트의	-12543
▁all	-12544
▁광저우	-12545
▁설명할	-12546
▁고려시대	-12547
▁정부에서	-12548
▁평가된다	-12549
▁빈번	-12550
▁선물	-12551
▁환상	-12552
▁나타낸	-12553
▁엔진은	-12554
▁조정에	-12555
▁학문을	-12556
▁개념으로	-12557
▁설치하여	-12558
▁자신들이	-12559
▁시뮬레이션	-12560
양함	-12561
원인	-12562
추는	-12563
▁앙리	-12564
▁짐작	-12565
원숭이	-12566
▁가족은	-12567
▁주머니	-12568
▁진출한	-12569
▁이를테면	-12570
▁준우승을	-12571
▁슬로바키아	-12572
▁킨	-12573
구르	-12574
방울	-12575
타니	-12576
히메	-12577
▁돌격	-12578
▁석조	-12579
▁철회	-12580
관계가	-12581
▁때문이라고	-12582
그레	-12583
▁마블	-12584
▁얼음	-12585
▁이룩	-12586
▁인플	-12587
▁입을	-12588
지역에	-12589
▁끌었다	-12590
▁아나키	-12591
▁지구에	-12592
▁아라비아	-12593
▁합스부르크	-12594
▁검정	-12595
▁네오	-12596
▁사항	-12597
▁케임	-12598
▁후안	-12599
▁자기의	-12600
▁해마다	-12601
▁실패하고	-12602
쪽은	-12603
함마	-12604
▁괴롭	-12605
▁마스	-12606
▁메소	-12607
▁쾌속	-12608
▁사업에	-12609
▁세력은	-12610
▁위원회는	-12611
▁`	-12612
왕조	-12613
운다	-12614
▁때려	-12615
▁발현	-12616
▁중장	-12617
▁공간이	-12618
▁포인트	-12619
▁각지에서	-12620
▁조선로동	-12621
▁핀란드의	-12622
▁이루어지지	-12623
▁fe	-12624
▁난을	-12625
▁죽어	-12626
▁시대가	-12627
▁일하는	-12628
▁1800	-12629
▁사용하면	-12630
▁무실	-12631
안에서	-12632
▁성에서	-12633
▁전했다	-12634
▁포기하고	-12635
야와	-12636
운의	-12637
▁곤란	-12638
▁배상	-12639
▁스리	-12640
▁위장	-12641
▁자오	-12642
▁중재	-12643
▁집결	-12644
는지는	-12645
▁단어를	-12646
▁방문한	-12647
▁영화가	-12648
▁전세계	-12649
▁기본으로	-12650
▁나중에는	-12651
랑을	-12652
▁공모	-12653
▁부의	-12654
▁부장	-12655
▁북방	-12656
▁지녔	-12657
▁지평	-12658
▁교통의	-12659
▁구단의	-12660
▁조직이	-12661
▁되었다는	-12662
락이	-12663
▁배가	-12664
▁유동	-12665
▁재미	-12666
▁본래의	-12667
▁붙었다	-12668
▁중반에	-12669
적으로도	-12670
▁둘러싸여	-12671
▁룩셈부르크	-12672
가요	-12673
금지	-12674
기사	-12675
너가	-12676
▁떠오	-12677
▁불상	-12678
▁충실	-12679
리스는	-12680
▁1884	-12681
▁거부하고	-12682
근의	-12683
온을	-12684
총장	-12685
협력	-12686
~20	-12687
▁69	-12688
▁극대	-12689
▁매매	-12690
▁춘천	-12691
▁한인	-12692
치에서	-12693
▁정치에	-12694
▁알렉산드로	-12695
권도	-12696
▁병을	-12697
▁터키의	-12698
▁헌법에	-12699
보와	-12700
종교	-12701
터널	-12702
▁리틀	-12703
▁발각	-12704
▁수확	-12705
▁지름	-12706
▁황해	-12707
▁소리가	-12708
▁소행성	-12709
벽을	-12710
▁97	-12711
▁여진	-12712
▁흔한	-12713
▁미시간	-12714
▁클럽의	-12715
▁하원의	-12716
▁크리스마스	-12717
▁톤	-12718
▁사정	-12719
▁상트	-12720
▁환원	-12721
스트가	-12722
▁대가로	-12723
▁모습은	-12724
▁소련은	-12725
▁에이스	-12726
▁통일신라	-12727
두로	-12728
머는	-12729
▁자국	-12730
▁편에	-12731
▁함대	-12732
▁메달을	-12733
▁비하여	-12734
▁자치구	-12735
ome	-12736
▁2.	-12737
▁아타	-12738
▁온갖	-12739
▁중서	-12740
▁평정	-12741
▁하우	-12742
▁프랑크푸르트	-12743
),	-12744
▁붐	-12745
▁기숙	-12746
▁불명	-12747
책으로	-12748
판에서	-12749
▁관련해	-12750
▁똑같은	-12751
▁설치하고	-12752
단위	-12753
주지	-12754
▁봉안	-12755
▁중산	-12756
▁튀니	-12757
받았고	-12758
▁일제의	-12759
▁제목의	-12760
▁개념이다	-12761
▁그러다가	-12762
▁나타내고	-12763
시나	-12764
작전	-12765
혹한	-12766
▁주위에	-12767
▁대응하는	-12768
▁중요성을	-12769
▁플라스틱	-12770
▁법조	-12771
▁숙청	-12772
▁정립	-12773
▁외에는	-12774
▁떨어졌다	-12775
▁선수들을	-12776
관련	-12777
▁78	-12778
▁번호	-12779
▁수면	-12780
▁가지로	-12781
▁건설된	-12782
▁뛰었다	-12783
▁결정된다	-12784
초로	-12785
▁김창	-12786
▁남게	-12787
▁바른	-12788
▁반공	-12789
▁뽑아	-12790
▁자의	-12791
▁범위를	-12792
▁앨범에	-12793
▁포로로	-12794
▁공격으로	-12795
▁블라디미르	-12796
▁닐	-12797
루수	-12798
초는	-12799
컨대	-12800
▁도네	-12801
▁동인	-12802
▁앞장	-12803
▁없던	-12804
▁용병	-12805
▁최진	-12806
▁호를	-12807
▁갈수록	-12808
▁달한다	-12809
▁의무를	-12810
▁팜	-12811
독일	-12812
운은	-12813
▁로열	-12814
▁선배	-12815
▁재편	-12816
▁중종	-12817
하기는	-12818
-200	-12819
▁열차의	-12820
▁인테르	-12821
▁덤	-12822
▁왈	-12823
▁민병	-12824
▁사범	-12825
▁이산	-12826
▁키워	-12827
▁군이다	-12828
▁클라이	-12829
▁방면으로	-12830
▁하느님의	-12831
취를	-12832
▁개종	-12833
▁전속	-12834
▁해명	-12835
레스는	-12836
제도를	-12837
▁뉴욕의	-12838
▁되었던	-12839
▁이상한	-12840
▁아이디얼	-12841
뉴스	-12842
토와	-12843
해튼	-12844
▁항소	-12845
러시아	-12846
자리의	-12847
▁nba	-12848
▁명이다	-12849
▁영지를	-12850
주의적인	-12851
숙은	-12852
전사	-12853
차량	-12854
_12	-12855
▁균형	-12856
▁배려	-12857
▁수에	-12858
▁치안	-12859
월에서	-12860
▁제주도	-12861
▁페널티	-12862
▁연결되는	-12863
메다	-12864
▁87	-12865
▁dc	-12866
▁나섰	-12867
▁대교	-12868
▁알을	-12869
▁연상	-12870
▁진을	-12871
▁패전	-12872
행으로	-12873
▁두개골	-12874
보통학교	-12875
▁정의한다	-12876
후로	-12877
▁개가	-12878
▁걱정	-12879
▁극동	-12880
▁덮여	-12881
▁산이	-12882
▁시바	-12883
▁중대	-12884
▁키는	-12885
터미널	-12886
▁변화는	-12887
▁보내고	-12888
▁아틀레	-12889
▁테일러	-12890
▁이용된다	-12891
▁통합하여	-12892
츠키	-12893
통은	-12894
ide	-12895
▁86	-12896
▁늑대	-12897
▁무궁	-12898
▁임용	-12899
▁짙은	-12900
▁컴퍼	-12901
연으로	-12902
▁다니는	-12903
▁목성의	-12904
▁수도원	-12905
▁총리가	-12906
계에서는	-12907
노를	-12908
업과	-12909
나무는	-12910
호선이	-12911
▁올랐고	-12912
막을	-12913
ick	-12914
iss	-12915
▁가환	-12916
▁규범	-12917
▁끝날	-12918
▁면허	-12919
▁조르	-12920
▁팔라	-12921
▁기관총	-12922
공무	-12923
수용	-12924
▁살려	-12925
▁서민	-12926
▁숨어	-12927
▁악기	-12928
▁하차	-12929
▁ceo	-12930
▁자료가	-12931
▁근무했다	-12932
▁이적했다	-12933
▁사용하기도	-12934
▁중화민국의	-12935
▁에게	-12936
되므로	-12937
사회의	-12938
▁데뷔한	-12939
▁알리는	-12940
▁했었다	-12941
ivers	-12942
▁어드벤처	-12943
▁가볍	-12944
거리가	-12945
▁경제의	-12946
▁이내에	-12947
▁시리즈에서	-12948
료는	-12949
서구	-12950
지리	-12951
▁선도	-12952
▁안치	-12953
▁앨범인	-12954
▁인간을	-12955
▁중대한	-12956
~6	-12957
돌은	-12958
법상	-12959
전시	-12960
커가	-12961
한이	-12962
황이	-12963
ire	-12964
▁단절	-12965
▁않자	-12966
▁유벤	-12967
▁케냐	-12968
▁당연히	-12969
▁일으킬	-12970
▁중심에	-12971
▁프란체	-12972
▁혁명의	-12973
▁발생하여	-12974
▁올라간다	-12975
▁취임했다	-12976
▁강희	-12977
▁갱신	-12978
▁권총	-12979
▁맞붙	-12980
▁카트	-12981
▁보여준	-12982
규는	-12983
준비	-12984
▁동명	-12985
▁북위	-12986
▁지옥	-12987
▁화강	-12988
▁결론을	-12989
▁실시한	-12990
▁조약이	-12991
ck	-12992
▁눌	-12993
▁gs	-12994
▁기증	-12995
▁들을	-12996
▁횡단	-12997
기관의	-12998
법에서	-12999
▁로마에	-13000
▁작업에	-13001
포와	-13002
▁vs	-13003
▁꼭대	-13004
▁단식	-13005
▁오비	-13006
▁좌석	-13007
그라드	-13008
색이다	-13009
▁말기의	-13010
▁우즈베	-13011
▁제작을	-13012
▁종교의	-13013
▁토지를	-13014
▁연봉	-13015
▁잘라	-13016
▁제퍼	-13017
당하는	-13018
작이다	-13019
▁고향인	-13020
▁마을에	-13021
▁줄무늬	-13022
▁운행하고	-13023
광을	-13024
만과	-13025
▁년에	-13026
▁때가	-13027
▁미터	-13028
▁이데	-13029
부에는	-13030
▁나오고	-13031
▁새겨진	-13032
ll	-13033
말에	-13034
사리	-13035
▁마녀	-13036
▁무의	-13037
▁미션	-13038
▁신중	-13039
▁초빙	-13040
▁서부에	-13041
▁치열한	-13042
버리	-13043
아키	-13044
▁기각	-13045
▁느꼈	-13046
▁오지	-13047
▁비행기	-13048
▁시스템에	-13049
두에	-13050
벌레	-13051
▁델라	-13052
▁윤리	-13053
▁이소	-13054
▁장을	-13055
서비스	-13056
청에서	-13057
▁대회가	-13058
▁시이다	-13059
▁주장에	-13060
개국에서	-13061
▁에스페란	-13062
▁우승했다	-13063
▁av	-13064
▁데서	-13065
▁볼로	-13066
▁소말	-13067
▁적다	-13068
▁차용	-13069
▁합친	-13070
하우스	-13071
▁열매는	-13072
▁있거나	-13073
▁알려져있다	-13074
▁시종	-13075
▁암시	-13076
▁이관	-13077
▁저렴	-13078
▁직할	-13079
년에도	-13080
▁경상도	-13081
▁동부에	-13082
▁동쪽의	-13083
▁브로드	-13084
되어있다	-13085
위기	-13086
▁lp	-13087
▁가려	-13088
▁임상	-13089
▁폭로	-13090
▁공격해	-13091
▁상황은	-13092
▁선수들	-13093
▁비판하였다	-13094
▁은퇴하였다	-13095
▁겁	-13096
창은	-13097
▁수성	-13098
▁추종	-13099
티미터	-13100
▁게임에	-13101
진상규명	-13102
▁1880	-13103
대구	-13104
▁번에	-13105
▁음원	-13106
▁임관	-13107
▁조광	-13108
▁교회를	-13109
▁오피스	-13110
▁등장하였다	-13111
요의	-13112
.5%	-13113
▁걸린	-13114
▁교전	-13115
▁물어	-13116
▁산란	-13117
▁열심	-13118
들었다	-13119
▁다니엘	-13120
▁독일에	-13121
▁아름답	-13122
▁제네바	-13123
▁평화를	-13124
▁태자	-13125
지에는	-13126
▁103	-13127
▁피해가	-13128
▁함수는	-13129
▁기념하여	-13130
▁인터내셔널	-13131
도리	-13132
정신	-13133
▁년간	-13134
▁모인	-13135
테이션	-13136
▁어렸을	-13137
▁기여했다	-13138
▁운행한다	-13139
▁북아프리카	-13140
▁샀	-13141
노에	-13142
피가	-13143
끄러운	-13144
▁구간의	-13145
▁도왔다	-13146
▁수행할	-13147
▁운영을	-13148
▁아니라는	-13149
것도	-13150
아래	-13151
▁내무	-13152
▁두꺼	-13153
▁토르	-13154
▁형상	-13155
▁소비자	-13156
▁평안북도	-13157
▁이스라엘의	-13158
투자	-13159
▁공이	-13160
▁농산	-13161
▁두께	-13162
▁붙였다	-13163
▁1600	-13164
▁어항이다	-13165
잡이	-13166
츠를	-13167
▁상행	-13168
▁시직	-13169
▁에밀	-13170
▁청산	-13171
▁환영	-13172
제이다	-13173
▁못하여	-13174
▁십자군	-13175
▁인접해	-13176
▁쾰	-13177
궁의	-13178
말라	-13179
col	-13180
▁꼭짓	-13181
▁온대	-13182
▁해가	-13183
▁세워져	-13184
▁카드를	-13185
▁회사인	-13186
▁인정하는	-13187
과가	-13188
나로	-13189
레타	-13190
▁법원	-13191
노스케	-13192
레이터	-13193
정부는	-13194
▁김옥균	-13195
▁기여하였다	-13196
폭력	-13197
ond	-13198
▁서임	-13199
▁아닐	-13200
▁추산	-13201
▁퀘벡	-13202
▁한스	-13203
▁한해	-13204
▁무조건	-13205
▁신화의	-13206
능한	-13207
통제	-13208
회담	-13209
▁길에	-13210
▁김경	-13211
▁시립	-13212
▁아담	-13213
▁왜곡	-13214
▁피츠	-13215
▁긴테쓰	-13216
료가	-13217
증의	-13218
처는	-13219
형인	-13220
-19	-13221
ere	-13222
▁김현	-13223
▁맞대	-13224
▁토니	-13225
론으로	-13226
▁경향을	-13227
▁물질이	-13228
▁바꾸고	-13229
▁수도를	-13230
▁제도에	-13231
아일랜드	-13232
▁루터	-13233
▁입원	-13234
▁국가와	-13235
▁서울에	-13236
▁소문이	-13237
▁베트남의	-13238
▁천문학자	-13239
▁킬로미터	-13240
▁토너먼트	-13241
▁학생들은	-13242
중추	-13243
▁동행	-13244
▁어둠	-13245
▁마라톤	-13246
▁선출된	-13247
▁싸움을	-13248
▁역사와	-13249
▁주연을	-13250
▁지도를	-13251
▁천황이	-13252
▁몸길이는	-13253
▁사랑하는	-13254
제학	-13255
철이	-13256
▁감안	-13257
▁김홍	-13258
▁내정	-13259
▁백화	-13260
▁분비	-13261
▁시노	-13262
▁측에	-13263
▁국제적	-13264
▁표현할	-13265
▁흐르고	-13266
난을	-13267
▁73	-13268
▁궁궐	-13269
▁팀과	-13270
▁기간은	-13271
▁사전에	-13272
▁장군은	-13273
▁유래했다	-13274
▁선임되었다	-13275
▁렉	-13276
▁쥬	-13277
▁로이	-13278
▁무슨	-13279
▁상응	-13280
▁자선	-13281
▁조화	-13282
▁경찰의	-13283
▁내용이다	-13284
▁입단했다	-13285
▁북아일랜드	-13286
eg	-13287
작인	-13288
장치	-13289
▁비타	-13290
▁성숙	-13291
사단은	-13292
▁소재의	-13293
▁연합의	-13294
▁클레멘	-13295
▁건축물이다	-13296
▁</	-13297
▁공표	-13298
▁알지	-13299
족으로	-13300
▁것인지	-13301
▁누구나	-13302
▁후임으로	-13303
술은	-13304
파크	-13305
편은	-13306
한테	-13307
▁감마	-13308
▁이빨	-13309
▁즈음	-13310
▁태극	-13311
▁교수를	-13312
▁무대로	-13313
▁자란다	-13314
▁이용해서	-13315
인권	-13316
▁그릇	-13317
▁리치	-13318
▁쌍둥이	-13319
▁표현한	-13320
▁전역에서	-13321
▁최대풍속	-13322
포드	-13323
▁가의	-13324
▁냄새	-13325
번으로	-13326
▁101	-13327
▁논란을	-13328
▁무렵에	-13329
▁에서는	-13330
▁음악적	-13331
▁지구가	-13332
▁프레스	-13333
▁도시에서	-13334
▁콜로라도	-13335
야에	-13336
융합	-13337
포트	-13338
▁가열	-13339
▁순조	-13340
▁즐길	-13341
렸지만	-13342
직으로	-13343
▁나라가	-13344
▁주위의	-13345
▁할리우	-13346
▁후보를	-13347
▁가정에서	-13348
▁개인적인	-13349
▁공격했다	-13350
▁클라이언	-13351
▁국회의원을	-13352
더의	-13353
티가	-13354
▁성종	-13355
▁양을	-13356
▁900	-13357
▁올랐으며	-13358
▁일어나고	-13359
▁해체되었다	-13360
▁프로그램으로	-13361
글리	-13362
방위	-13363
안과	-13364
▁가동	-13365
▁청원	-13366
▁엔진이	-13367
▁영국이	-13368
▁현상은	-13369
▁나이지리아	-13370
▁랴	-13371
액이	-13372
채가	-13373
▁구해	-13374
▁브란	-13375
▁아크	-13376
▁포획	-13377
▁플랜	-13378
속에서	-13379
▁미얀마	-13380
▁흔적이	-13381
세기에는	-13382
-21	-13383
ree	-13384
sic	-13385
▁감리	-13386
▁굵은	-13387
▁부각	-13388
▁평을	-13389
교에서	-13390
업으로	-13391
▁20%	-13392
▁꼽힌다	-13393
▁시호를	-13394
▁증거가	-13395
▁분위기를	-13396
▁인터페이스	-13397
▁임명되었고	-13398
있게	-13399
▁치렀	-13400
▁태백	-13401
span	-13402
▁경쟁을	-13403
▁슬라브	-13404
대학교는	-13405
▁동일하다	-13406
▁이전부터	-13407
▁림	-13408
▁김구	-13409
▁빈곤	-13410
▁수녀	-13411
▁요동	-13412
▁전날	-13413
▁제프	-13414
▁줄여	-13415
▁구역은	-13416
▁그로부터	-13417
▁커뮤니케이션	-13418
우기	-13419
직은	-13420
츠크	-13421
▁글리	-13422
▁무지	-13423
▁발급	-13424
▁카나	-13425
▁태그	-13426
▁협조	-13427
협의회	-13428
▁건설을	-13429
▁극심한	-13430
▁방법에	-13431
▁조사에	-13432
▁킥	-13433
고래	-13434
미즈	-13435
번이	-13436
인간	-13437
▁감싸	-13438
▁리베	-13439
▁앞면	-13440
▁은거	-13441
▁의석	-13442
루시아	-13443
호선과	-13444
▁계약이	-13445
▁모티브	-13446
▁선택할	-13447
명이었다	-13448
킬로미터	-13449
▁드러났다	-13450
▁받으면서	-13451
▁하였지만	-13452
▁결별	-13453
▁내전	-13454
▁라그	-13455
▁세조	-13456
▁정말	-13457
▁직통	-13458
▁파동	-13459
▁판정	-13460
쪽에는	-13461
▁350	-13462
▁사상은	-13463
▁스탈린	-13464
▁집안의	-13465
▁마을에서	-13466
▁프랑수아	-13467
▁기록되었다	-13468
푸스	-13469
▁요충	-13470
▁초연	-13471
▁시즌은	-13472
▁왕가의	-13473
▁프랭크	-13474
▁한국은	-13475
▁수단으로	-13476
▁평안남도	-13477
▁룰	-13478
브루	-13479
승의	-13480
신경	-13481
▁믿는	-13482
▁충성	-13483
▁가깝다	-13484
▁관직에	-13485
▁저작권	-13486
▁1871	-13487
▁바르샤바	-13488
▁역사에서	-13489
▁일렉트로	-13490
평군	-13491
▁맺어	-13492
▁원을	-13493
▁컴백	-13494
▁pro	-13495
▁방향에	-13496
▁서울대	-13497
▁위험을	-13498
▁이해할	-13499
▁파리의	-13500
다가스카	-13501
▁유사하다	-13502
▁형성한다	-13503
▁설립되었으며	-13504
▁도미	-13505
▁래퍼	-13506
▁완화	-13507
▁차출	-13508
▁가을에	-13509
▁다녔다	-13510
▁디트로	-13511
▁손해배	-13512
▁열대폭	-13513
▁혼란을	-13514
▁수준으로	-13515
▁야마가타	-13516
어요	-13517
일자	-13518
집행	-13519
▁만성	-13520
▁상인	-13521
▁하시	-13522
▁확신	-13523
▁서식지	-13524
▁스카우	-13525
▁신화에	-13526
대학교를	-13527
▁이전까지	-13528
▁79	-13529
▁pa	-13530
▁네팔	-13531
▁목성	-13532
▁증후	-13533
되도록	-13534
▁해군은	-13535
▁그룹으로	-13536
▁선수였다	-13537
▁오사카부	-13538
▁지원하고	-13539
▁체코슬로바키아	-13540
과와	-13541
발로	-13542
자고	-13543
▁불태	-13544
▁앞의	-13545
▁증대	-13546
▁퇴역	-13547
주머니	-13548
▁나라에	-13549
▁맨해튼	-13550
▁싸우는	-13551
▁유튜브	-13552
▁일본군의	-13553
근이	-13554
여우	-13555
▁가축	-13556
▁강동	-13557
▁마닐	-13558
▁서적	-13559
▁협주	-13560
루에서	-13561
버스는	-13562
▁강남구	-13563
▁고대의	-13564
▁그래미	-13565
▁기준을	-13566
▁대신해	-13567
▁대표적으로	-13568
▁대회에서는	-13569
나오	-13570
유키	-13571
ath	-13572
▁74	-13573
▁공습	-13574
▁현행	-13575
▁언론에	-13576
▁인류의	-13577
▁프란츠	-13578
▁니콜라이	-13579
▁받았다고	-13580
▁서식지는	-13581
▁총대주교	-13582
령과	-13583
부상	-13584
창한	-13585
체고	-13586
쿠버	-13587
▁호조	-13588
아버지	-13589
차이나	-13590
▁기간이	-13591
▁아돌프	-13592
▁제정된	-13593
▁결정한다	-13594
▁추가적인	-13595
▁학생들을	-13596
훈장	-13597
▁가오	-13598
▁국영	-13599
▁김씨	-13600
▁몸의	-13601
▁상이	-13602
▁이병	-13603
▁자칭	-13604
키아의	-13605
▁가사를	-13606
▁막부의	-13607
▁무함마	-13608
▁문화와	-13609
▁자체의	-13610
▁플래시	-13611
국제공항	-13612
▁1870	-13613
▁에너지가	-13614
▁효과적으로	-13615
▁뾰	-13616
우로	-13617
▁세례	-13618
명에서	-13619
▁one	-13620
▁다이어	-13621
▁본인이	-13622
▁생각이	-13623
▁송나라	-13624
▁중점을	-13625
▁오늘날에는	-13626
복은	-13627
▁이방	-13628
해졌고	-13629
▁cbs	-13630
▁mtv	-13631
▁지휘를	-13632
▁카리브	-13633
▁노선이다	-13634
▁부드러운	-13635
▁사용되지	-13636
▁용어이다	-13637
▁빔	-13638
ign	-13639
▁국군	-13640
▁돌로	-13641
▁수료	-13642
▁개인이	-13643
▁국왕의	-13644
▁마이크	-13645
▁순으로	-13646
▁사관	-13647
▁입지	-13648
▁천재	-13649
▁춤을	-13650
▁미래의	-13651
▁사태가	-13652
▁올리는	-13653
▁작가의	-13654
▁행동에	-13655
국사	-13656
▁다툼	-13657
▁도마	-13658
▁마하	-13659
▁오노	-13660
가지가	-13661
▁가상의	-13662
▁딸이다	-13663
▁수도로	-13664
▁챌린지	-13665
▁설명하고	-13666
▁제기되었다	-13667
▁로그	-13668
▁리오	-13669
▁슈트	-13670
▁이규	-13671
▁2-0	-13672
▁가리지	-13673
▁투어를	-13674
▁활동하다가	-13675
위안	-13676
출판	-13677
칸의	-13678
태를	-13679
풀이	-13680
▁날이	-13681
▁마일	-13682
▁사모	-13683
▁슈팅	-13684
▁쓰촨	-13685
▁전함	-13686
공으로	-13687
▁미쳤다	-13688
▁트로이	-13689
위원회에	-13690
▁동일하게	-13691
▁진행되는	-13692
캐슬	-13693
▁선비	-13694
▁카우	-13695
▁특집	-13696
▁퍼포	-13697
▁바꾸는	-13698
▁나타나고	-13699
▁슬로베니아	-13700
gb	-13701
조각	-13702
평화	-13703
▁82	-13704
▁관악	-13705
▁타협	-13706
▁라이언	-13707
▁문제와	-13708
▁위에는	-13709
▁자세히	-13710
▁장면이	-13711
▁마다가스카	-13712
시한	-13713
케는	-13714
_13	-13715
▁sy	-13716
▁동조	-13717
▁성리	-13718
▁세레	-13719
▁연못	-13720
▁청춘	-13721
▁구하는	-13722
▁서쪽의	-13723
▁점수를	-13724
▁가면라이더	-13725
군단	-13726
대대	-13727
▁기어	-13728
▁안성	-13729
▁약칭	-13730
년도에	-13731
수에서	-13732
스터는	-13733
▁젊은이	-13734
▁중부에	-13735
▁최소한	-13736
▁허가를	-13737
▁붙여졌다	-13738
▁운영되고	-13739
▁진행하는	-13740
창의	-13741
▁교리	-13742
▁의결	-13743
자에서	-13744
하기가	-13745
▁선거는	-13746
▁발렌시아	-13747
계급	-13748
암의	-13749
▁경에	-13750
▁되던	-13751
▁이경	-13752
▁일간	-13753
▁정유	-13754
▁모두를	-13755
▁언급한	-13756
▁함수를	-13757
▁이탈리아에서	-13758
배가	-13759
졌기	-13760
▁가네	-13761
▁내어	-13762
▁맥도	-13763
▁불평	-13764
▁약혼	-13765
▁칼럼	-13766
▁피오	-13767
▁잡아먹	-13768
▁사용되며	-13769
ary	-13770
▁시정	-13771
▁주자	-13772
▁힘썼	-13773
▁밴드를	-13774
▁전략을	-13775
▁정책은	-13776
▁따라서는	-13777
▁미사일을	-13778
▁수여받았다	-13779
ex	-13780
준을	-13781
▁sl	-13782
▁간토	-13783
▁갖지	-13784
▁금성	-13785
▁통영	-13786
커니즘	-13787
▁비용이	-13788
▁인간은	-13789
▁캔자스	-13790
▁클래스	-13791
▁게임에서	-13792
러와	-13793
ass	-13794
▁돌출	-13795
▁상경	-13796
▁연소	-13797
개월간	-13798
회의를	-13799
▁동대문	-13800
▁올바른	-13801
▁유로파	-13802
▁콤팩트	-13803
▁표현이	-13804
▁행성이	-13805
내며	-13806
▁대마	-13807
▁동학	-13808
▁들려	-13809
▁방침	-13810
▁번성	-13811
▁사간	-13812
▁수장	-13813
▁청소	-13814
▁115	-13815
▁그룹을	-13816
▁시간의	-13817
▁자랐다	-13818
▁주목할	-13819
▁건물이다	-13820
,3	-13821
▁옌	-13822
화물	-13823
▁가솔	-13824
▁무척	-13825
▁부총	-13826
▁소금	-13827
▁온천	-13828
▁초월	-13829
▁텍스트	-13830
▁헌법을	-13831
▁대통령과	-13832
▁발표하고	-13833
▁앨범으로	-13834
▁일본군은	-13835
▁점령했다	-13836
▁필요성을	-13837
_14	-13838
▁감금	-13839
▁안테	-13840
▁조병	-13841
▁공항은	-13842
▁기업인	-13843
▁네이션	-13844
▁레슬링	-13845
▁싸웠다	-13846
▁코치를	-13847
▁로마에서	-13848
▁친일반민족행위진상규명	-13849
bi	-13850
언어	-13851
지아	-13852
▁넷째	-13853
▁패널	-13854
▁회수	-13855
일체유	-13856
▁뉴저지	-13857
▁말까지	-13858
▁시간대	-13859
▁혁명을	-13860
▁프로젝트의	-13861
▁소프트웨어를	-13862
pc	-13863
개에	-13864
광년	-13865
▁미친	-13866
▁서태	-13867
▁쾰른	-13868
가들이	-13869
▁그곳에	-13870
▁사랑에	-13871
▁도착했다	-13872
▁특징으로	-13873
전선	-13874
탄은	-13875
▁간신	-13876
▁넥센	-13877
▁상세	-13878
▁소셜	-13879
▁죽인	-13880
명이며	-13881
▁머리에	-13882
▁이용객	-13883
고속도로의	-13884
▁벵	-13885
순환	-13886
▁반격	-13887
▁비영	-13888
▁칭찬	-13889
▁공간은	-13890
▁기간동안	-13891
▁엔지니어	-13892
네시	-13893
세다	-13894
▁그후	-13895
▁벌여	-13896
▁사쓰	-13897
▁없었	-13898
▁키가	-13899
▁터치	-13900
▁테르	-13901
▁바뀌어	-13902
▁완성된	-13903
페테르부르크	-13904
지능	-13905
ort	-13906
▁84	-13907
▁더글	-13908
▁동점	-13909
▁양주	-13910
▁정밀	-13911
▁향토	-13912
지지만	-13913
▁1,2	-13914
▁당하고	-13915
are	-13916
▁피를	-13917
▁헬리	-13918
▁가족의	-13919
▁것이나	-13920
▁의혹이	-13921
▁비례대표	-13922
▁10,000	-13923
절이	-13924
▁다를	-13925
▁산은	-13926
▁원의	-13927
▁차체	-13928
▁창출	-13929
관계에	-13930
석에서	-13931
터에서	-13932
했음을	-13933
▁장비를	-13934
▁크라이	-13935
▁설일체유	-13936
▁고려시대의	-13937
▁선수단이다	-13938
▁전국적으로	-13939
다르	-13940
하르	-13941
▁끌고	-13942
▁판례	-13943
▁mac	-13944
▁전당에	-13945
▁절차를	-13946
▁정의된다	-13947
당시	-13948
저의	-13949
▁샘플	-13950
공사의	-13951
▁드디어	-13952
▁바다에	-13953
전문학교	-13954
▁정치인으로	-13955
▁낫	-13956
▁얕	-13957
라트	-13958
락의	-13959
▁필드	-13960
▁동영상	-13961
▁오르는	-13962
▁조정의	-13963
▁단체이다	-13964
랑은	-13965
병과	-13966
사한	-13967
ase	-13968
▁71	-13969
▁겹쳐	-13970
▁다비	-13971
▁만났	-13972
▁성분	-13973
▁수색	-13974
▁미치지	-13975
▁스테이	-13976
▁아폴로	-13977
▁알파벳	-13978
▁정하는	-13979
▁카를로스	-13980
▁갯	-13981
리야	-13982
코를	-13983
▁미들	-13984
▁대학은	-13985
▁의혹을	-13986
▁일대의	-13987
▁접근할	-13988
▁지나는	-13989
▁작가이다	-13990
▁허리케인	-13991
-9	-13992
tc	-13993
▁밭	-13994
국적	-13995
브가	-13996
성인	-13997
▁기단	-13998
▁퇴적	-13999
▁평일	-14000
▁학원	-14001
일식은	-14002
▁내용에	-14003
▁들어올	-14004
▁종래의	-14005
▁관계없이	-14006
▁일이었다	-14007
++	-14008
비서	-14009
집단	-14010
▁신정	-14011
▁왼손	-14012
▁페리	-14013
▁하라	-14014
▁사카이	-14015
▁생산된	-14016
▁안티오	-14017
▁안토니오	-14018
▁증가하고	-14019
mi	-14020
▁다테	-14021
▁라오	-14022
▁몰수	-14023
▁아날	-14024
▁도입한	-14025
▁방사능	-14026
▁비주얼	-14027
▁장소로	-14028
▁쿠데타	-14029
▁100%	-14030
▁공개했다	-14031
▁중심지로	-14032
감의	-14033
▁약물	-14034
▁연구와	-14035
▁일하고	-14036
▁작성한	-14037
▁흐름을	-14038
▁고려하여	-14039
솔리	-14040
수리	-14041
옥은	-14042
히트	-14043
▁그루	-14044
▁스캔	-14045
▁종을	-14046
▁죽게	-14047
▁대단히	-14048
▁데스크	-14049
▁유학생	-14050
▁한국과	-14051
위원회에서	-14052
▁정치가이다	-14053
▁초등학교다	-14054
보수	-14055
봉사	-14056
약품	-14057
주택	-14058
▁견인	-14059
▁마인	-14060
▁메릴	-14061
▁바나	-14062
▁배속	-14063
▁유연	-14064
▁전래	-14065
▁중엽	-14066
▁퇴임	-14067
▁독일군	-14068
▁심리학	-14069
▁않아서	-14070
▁오로지	-14071
▁관해서는	-14072
▁바이올린	-14073
▁선수들의	-14074
▁예정이었으나	-14075
/3	-14076
무의	-14077
푸아	-14078
▁농장	-14079
▁이고	-14080
▁그래프	-14081
▁내리는	-14082
▁별자리	-14083
▁서울로	-14084
▁여성을	-14085
▁위주로	-14086
▁체계는	-14087
▁공격하는	-14088
▁버전으로	-14089
망의	-14090
읍에	-14091
▁수양	-14092
▁원숭	-14093
▁조립	-14094
▁지위	-14095
▁진지	-14096
▁포수	-14097
▁해고	-14098
▁경찰이	-14099
▁전국의	-14100
▁토스카	-14101
▁그레이트	-14102
▁담당한다	-14103
▁활발하게	-14104
▁쿤	-14105
리얼	-14106
미국	-14107
해로	-14108
황의	-14109
▁각색	-14110
▁경희	-14111
▁다투	-14112
▁닫힌	-14113
▁이완	-14114
가이자	-14115
▁감독과	-14116
▁은하의	-14117
▁지키고	-14118
▁수행한다	-14119
▁면이	-14120
▁원격	-14121
당하여	-14122
해야만	-14123
▁말부터	-14124
▁생겨난	-14125
▁영역에	-14126
▁작업이	-14127
▁친구인	-14128
▁하나님	-14129
도서관은	-14130
▁벨기에의	-14131
▁함경남도	-14132
▁적용되었다	-14133
▁gn	-14134
▁경의	-14135
▁성곽	-14136
▁유권	-14137
▁타당	-14138
▁협동	-14139
▁반정부	-14140
▁소련이	-14141
▁재판을	-14142
▁책이다	-14143
▁엮	-14144
▁검출	-14145
▁산을	-14146
▁쓰레	-14147
▁이장	-14148
▁자작	-14149
▁점과	-14150
▁투명	-14151
년대와	-14152
사령부	-14153
시간이	-14154
▁영업을	-14155
▁이란의	-14156
▁통치를	-14157
▁힘으로	-14158
▁만들어져	-14159
▁있어서의	-14160
▁명명되었다	-14161
강과	-14162
검찰	-14163
관인	-14164
생명	-14165
전략	-14166
함수	-14167
화할	-14168
▁바에	-14169
▁발의	-14170
▁뾰족	-14171
▁아야	-14172
▁토끼	-14173
▁수익을	-14174
▁에디션	-14175
▁제작에	-14176
학자이자	-14177
▁상관없이	-14178
▁으	-14179
▁묶어	-14180
▁보성	-14181
▁실존	-14182
▁여우	-14183
▁잃게	-14184
▁크롬	-14185
것으로	-14186
▁견해가	-14187
▁스포르	-14188
▁전투의	-14189
▁초창기	-14190
▁방문하여	-14191
▁체포되었다	-14192
쉽게	-14193
직의	-14194
▁고소	-14195
▁대부	-14196
▁신조	-14197
▁절차	-14198
▁유럽과	-14199
▁카르타	-14200
▁요청했다	-14201
궁을	-14202
대왕	-14203
밀히	-14204
▁가맹	-14205
▁출가	-14206
▁형인	-14207
▁시에는	-14208
▁심하게	-14209
▁아키텍	-14210
▁한계를	-14211
대학교의	-14212
▁제안했다	-14213
▁구성되었다	-14214
▁기록하면서	-14215
ek	-14216
▁낚	-14217
▁싣	-14218
리던	-14219
빈의	-14220
진보	-14221
▁기기	-14222
▁대니	-14223
▁러일	-14224
▁원조	-14225
▁제대	-14226
▁하반	-14227
▁허위	-14228
우스와	-14229
팀으로	-14230
▁가리는	-14231
▁마을이	-14232
▁시험을	-14233
▁지키기	-14234
▁칼리지	-14235
▁발견되어	-14236
▁변경했다	-14237
▁부르고뉴	-14238
▁출신이며	-14239
▁성장하였다	-14240
▁만세	-14241
▁하행	-14242
각형의	-14243
▁80%	-14244
▁위원회의	-14245
▁한편으로는	-14246
아야	-14247
역학	-14248
포에	-14249
▁반경	-14250
▁전격	-14251
▁화를	-14252
▁겉보기	-14253
▁급속히	-14254
▁정도에	-14255
▁제국과	-14256
▁죽음의	-14257
▁2020	-14258
▁물리치고	-14259
▁사람들과	-14260
▁크리스티안	-14261
미한	-14262
우지	-14263
토벤	-14264
▁대행	-14265
▁유진	-14266
▁중퇴	-14267
▁부대의	-14268
▁제시한	-14269
▁카운티	-14270
권에서는	-14271
등과	-14272
미트	-14273
사용	-14274
채는	-14275
학원	-14276
▁jt	-14277
▁데스	-14278
▁상표	-14279
▁태평	-14280
▁게이트	-14281
▁되도록	-14282
▁따뜻한	-14283
▁왔으며	-14284
보르	-14285
복의	-14286
▁간이	-14287
▁집어	-14288
▁독일인	-14289
▁불규칙	-14290
▁사쿠라	-14291
▁조직은	-14292
▁중국인	-14293
▁카스티	-14294
▁설립되어	-14295
▁국가대표팀에	-14296
극을	-14297
기자	-14298
▁생식	-14299
능력을	-14300
▁도시인	-14301
▁동유럽	-14302
▁컴퓨터의	-14303
.<	-14304
▁김병	-14305
▁캠프	-14306
ream	-14307
▁고문을	-14308
▁버전을	-14309
▁생긴다	-14310
▁시코쿠	-14311
▁않아도	-14312
▁생겨났다	-14313
▁아시카가	-14314
▁한편으로	-14315
믹스	-14316
자금	-14317
▁치루	-14318
▁풍자	-14319
연구원	-14320
▁논쟁이	-14321
▁위원장	-14322
▁거부했다	-14323
노프	-14324
양과	-14325
▁81	-14326
▁탐색	-14327
▁파손	-14328
▁하원	-14329
▁민간인	-14330
▁상처를	-14331
▁홍문관	-14332
▁발표하여	-14333
_16	-14334
▁가격이	-14335
▁요시노	-14336
▁상트페테르부르크	-14337
▁cs	-14338
▁가늘	-14339
▁경질	-14340
▁곡선	-14341
▁과일	-14342
▁사슬	-14343
▁성별	-14344
▁애리	-14345
로에서	-14346
▁높이가	-14347
▁서대문	-14348
▁수학적	-14349
▁팬들의	-14350
▁하느님	-14351
▁것이므로	-14352
▁중앙아시아	-14353
au	-14354
당인	-14355
양에	-14356
▁간선	-14357
▁김유	-14358
▁어쩔	-14359
▁읽고	-14360
▁축조	-14361
▁파산	-14362
▁피의	-14363
▁현금	-14364
▁단체의	-14365
▁레스토	-14366
▁보내어	-14367
▁가르쳤다	-14368
▁알래스카	-14369
▁오케스트	-14370
▁냈	-14371
단지	-14372
부르	-14373
치히	-14374
▁궁정	-14375
▁늦게	-14376
▁명은	-14377
▁바꿀	-14378
▁봄에	-14379
▁살게	-14380
▁잠실	-14381
▁저격	-14382
▁포장	-14383
▁흥미	-14384
▁연안에	-14385
▁유력한	-14386
▁임명된	-14387
▁도쿄에서	-14388
▁출연하여	-14389
▁박사학위를	-14390
▁민족문제연구소의	-14391
는가	-14392
종에	-14393
토록	-14394
▁다름	-14395
▁스릴	-14396
▁우정	-14397
▁입수	-14398
▁선수의	-14399
▁원나라	-14400
▁정의는	-14401
▁토너먼	-14402
▁홈경기	-14403
▁여겨지고	-14404
▁주관하는	-14405
▁대한민국을	-14406
브르	-14407
세력	-14408
암아	-14409
▁대명	-14410
▁얇은	-14411
▁치고	-14412
전부터	-14413
▁조직에	-14414
▁죽음에	-14415
▁지닌다	-14416
▁흐른다	-14417
▁스톡홀름	-14418
▁아케이드	-14419
▁주어졌다고	-14420
염을	-14421
▁다크	-14422
▁반감	-14423
▁옵션	-14424
▁용암	-14425
▁중공	-14426
▁핸드	-14427
▁분리된	-14428
▁예전에	-14429
▁이름과	-14430
▁선수들은	-14431
▁성적으로	-14432
▁제정되었다	-14433
묘한	-14434
배에	-14435
▁고령	-14436
▁막는	-14437
▁박지	-14438
▁사서	-14439
▁입헌	-14440
들보다	-14441
▁sch	-14442
▁규정을	-14443
▁그보다	-14444
▁삼국지	-14445
덴부르크	-14446
▁대대적인	-14447
▁크리스토퍼	-14448
가게	-14449
기계	-14450
척을	-14451
▁그랜	-14452
▁글래	-14453
▁전기의	-14454
▁그녀에게	-14455
▁성씨이다	-14456
▁실시하는	-14457
▁예전에는	-14458
,4	-14459
▁막시	-14460
▁첨단	-14461
심으로	-14462
▁내각의	-14463
▁장소에	-14464
▁주민의	-14465
▁퍼포먼	-14466
▁협정을	-14467
▁홍콩의	-14468
▁1885	-14469
▁보도했다	-14470
nt	-14471
맥스	-14472
워서	-14473
▁딸이	-14474
▁마츠	-14475
▁캐서	-14476
그룹의	-14477
저기압	-14478
티아의	-14479
▁약속을	-14480
▁의원을	-14481
▁총리를	-14482
▁내부에서	-14483
▁프로덕션	-14484
료의	-14485
int	-14486
▁넘게	-14487
▁타자	-14488
▁피트	-14489
갔다가	-14490
당한다	-14491
▁기리기	-14492
▁마르세	-14493
▁미주리	-14494
▁별명이	-14495
▁인구밀	-14496
▁황제는	-14497
▁발견하고	-14498
▁플레이어가	-14499
▁친일반민족행위진상규명위원회가	-14500
시킴	-14501
▁낙동	-14502
▁입주	-14503
▁처분	-14504
▁하남	-14505
운동이	-14506
▁국민당	-14507
▁수비수	-14508
▁공항으로	-14509
▁단독으로	-14510
▁발견되지	-14511
▁병원에서	-14512
▁연합군은	-14513
▁프로듀싱	-14514
▁기회	-14515
▁압둘	-14516
▁차를	-14517
▁하트	-14518
자리는	-14519
▁게릴라	-14520
▁떨어뜨	-14521
▁마리의	-14522
▁부근의	-14523
▁아마존	-14524
▁양자로	-14525
▁케임브리지	-14526
formula	-14527
루아	-14528
애틀	-14529
▁개를	-14530
▁달걀	-14531
▁접한	-14532
▁도로를	-14533
▁내에서는	-14534
▁모셔	-14535
▁잔류	-14536
▁진도	-14537
▁가져온	-14538
▁법칙을	-14539
▁별개의	-14540
▁열심히	-14541
▁사용되기도	-14542
사고	-14543
올라	-14544
트륨	-14545
▁장미	-14546
▁접해	-14547
▁펜싱	-14548
테이너	-14549
▁rec	-14550
▁그룹이	-14551
▁리그로	-14552
▁마르코	-14553
▁판매를	-14554
▁국무총리	-14555
▁다양하게	-14556
▁정치적으로	-14557
민과	-14558
티즌	-14559
▁가산	-14560
▁나를	-14561
▁내걸	-14562
하게도	-14563
▁가족과	-14564
▁노르망	-14565
▁명확한	-14566
▁왕실의	-14567
▁파운드	-14568
▁세종특별자치	-14569
보니	-14570
▁부도	-14571
▁사바	-14572
▁솟아	-14573
정부가	-14574
▁30%	-14575
▁미군의	-14576
▁축구를	-14577
▁들어가게	-14578
▁아날로그	-14579
▁추구하는	-14580
▁캐릭터를	-14581
▁독자적으로	-14582
거진	-14583
유지	-14584
타고	-14585
토로	-14586
하임	-14587
히게	-14588
▁광장	-14589
▁음향	-14590
조에서	-14591
lude	-14592
▁결정에	-14593
▁목적이	-14594
▁베토벤	-14595
▁조성된	-14596
▁처분을	-14597
▁한국을	-14598
▁압도적인	-14599
▁항공모함	-14600
만인	-14601
월호	-14602
직할	-14603
▁관동	-14604
▁나비	-14605
▁다저	-14606
▁스노	-14607
▁자산	-14608
▁해태	-14609
문화의	-14610
▁계속된	-14611
▁정이다	-14612
디언	-14613
평의	-14614
▁gu	-14615
▁개항	-14616
▁공백	-14617
▁다마	-14618
▁각지의	-14619
▁리그인	-14620
▁쓰여진	-14621
▁안정된	-14622
▁여배우	-14623
▁운행되고	-14624
▁유산	-14625
위까지	-14626
▁작전은	-14627
▁전신인	-14628
▁프란치	-14629
▁않았다는	-14630
▁야마구치	-14631
mc	-14632
친구	-14633
쿠니	-14634
▁mr	-14635
▁개원	-14636
▁고쿠	-14637
▁산에	-14638
▁스태	-14639
▁항쟁	-14640
▁해변	-14641
▁교회는	-14642
▁쓰기도	-14643
▁종류는	-14644
▁협력을	-14645
▁말미암아	-14646
▁틸	-14647
어인	-14648
충은	-14649
▁nt	-14650
▁세금	-14651
▁씨가	-14652
▁조류	-14653
▁rna	-14654
▁볼셰비	-14655
▁위험이	-14656
▁캠퍼스	-14657
▁프로젝트는	-14658
검사	-14659
림과	-14660
발사	-14661
천과	-14662
▁값은	-14663
▁강풍	-14664
▁겪고	-14665
▁문인	-14666
▁세기	-14667
▁소나	-14668
▁수필	-14669
▁이타	-14670
레스의	-14671
▁끼쳤다	-14672
▁일어나지	-14673
▁출판되었다	-14674
용과	-14675
▁히사	-14676
헝가리	-14677
▁ost	-14678
▁공으로	-14679
▁아이가	-14680
▁주제를	-14681
▁1889	-14682
▁올림피아	-14683
▁헤르체고	-14684
▁수록되었다	-14685
것이	-14686
바퀴	-14687
부아	-14688
▁독창	-14689
▁손실	-14690
▁초고	-14691
리라는	-14692
▁매니저	-14693
▁미네소	-14694
▁받아야	-14695
▁사항을	-14696
▁시장의	-14697
▁중성자	-14698
▁지방은	-14699
▁하도록	-14700
▁늘어났다	-14701
▁뻔	-14702
루로	-14703
업체	-14704
품은	-14705
▁문하	-14706
▁산지	-14707
▁살라	-14708
▁세상	-14709
▁전지	-14710
▁열차를	-14711
▁원리를	-14712
▁항복을	-14713
▁행하는	-14714
▁워크	-14715
▁평평	-14716
국이다	-14717
라디오	-14718
ence	-14719
▁국적을	-14720
▁그밖에	-14721
▁순위를	-14722
▁시도를	-14723
▁유리한	-14724
▁전자의	-14725
▁질량을	-14726
▁영화에서	-14727
▁주민들의	-14728
결혼	-14729
등은	-14730
롭고	-14731
정권	-14732
▁것의	-14733
▁것일	-14734
▁급성	-14735
▁명목	-14736
▁압력	-14737
▁웹툰	-14738
▁유타	-14739
▁전복	-14740
▁종군	-14741
▁회화	-14742
리그에	-14743
부분에	-14744
선거구	-14745
▁원인으로	-14746
노와	-14747
느러	-14748
다와	-14749
슬레	-14750
▁광학	-14751
▁요약	-14752
▁진실	-14753
가지로	-14754
▁느끼고	-14755
▁대화를	-14756
▁귀국하여	-14757
▁대항하여	-14758
▁컴퓨터를	-14759
▁발전하였다	-14760
것은	-14761
웠던	-14762
ink	-14763
▁불린	-14764
▁협정	-14765
▁사건과	-14766
▁단계에서	-14767
견이	-14768
▁다윈	-14769
▁라마	-14770
▁모의	-14771
▁워터	-14772
해지자	-14773
▁akb	-14774
▁곳곳에	-14775
▁그렸다	-14776
▁생명을	-14777
▁해안에	-14778
▁시리즈에	-14779
▁에콰도르	-14780
▁미드필더로	-14781
▁뷔	-14782
클로	-14783
▁공수	-14784
▁데모	-14785
▁드는	-14786
지었다	-14787
▁사라진	-14788
▁세금을	-14789
▁정의를	-14790
▁제출한	-14791
▁복귀했다	-14792
▁설립하여	-14793
▁정기적으로	-14794
▁중앙위원회	-14795
극의	-14796
니코	-14797
더를	-14798
▁루카	-14799
▁승무	-14800
▁연수	-14801
▁우르	-14802
▁자책	-14803
▁조세	-14804
▁지류	-14805
물리학	-14806
전까지	-14807
▁가르침	-14808
▁감옥에	-14809
▁노란색	-14810
▁대전의	-14811
▁도로가	-14812
▁손실을	-14813
▁영어를	-14814
▁유닉스	-14815
▁정하고	-14816
갈색	-14817
거의	-14818
심과	-14819
하늘	-14820
▁격추	-14821
▁당주	-14822
▁매수	-14823
▁석회	-14824
▁사례가	-14825
▁아미타	-14826
▁연기했다	-14827
▁지배하는	-14828
▁한국철도	-14829
재산	-14830
▁조로	-14831
스키의	-14832
▁권위를	-14833
▁당대의	-14834
▁모시고	-14835
▁원소는	-14836
받았으며	-14837
▁독일군의	-14838
▁업그레이드	-14839
▁늙	-14840
되나	-14841
양성	-14842
이야	-14843
▁느린	-14844
▁니코	-14845
▁듀얼	-14846
▁수산	-14847
▁이븐	-14848
사들은	-14849
▁보낸다	-14850
▁전통적	-14851
▁체제가	-14852
▁헤이안	-14853
▁시기에는	-14854
▁포유류의	-14855
no	-14856
메데	-14857
▁루스	-14858
▁모색	-14859
▁무성	-14860
▁부에	-14861
▁생일	-14862
▁위촉	-14863
대학의	-14864
only	-14865
▁건축물	-14866
▁길이의	-14867
▁산업은	-14868
▁생산을	-14869
▁출판된	-14870
▁강조했다	-14871
▁무대에서	-14872
엔터테인먼	-14873
ph	-14874
드르	-14875
문자	-14876
방정	-14877
-14	-14878
▁공과	-14879
▁공신	-14880
▁봉기	-14881
▁신형	-14882
▁열을	-14883
▁폭행	-14884
▁5.1	-14885
▁가져다	-14886
▁가족을	-14887
▁놀라운	-14888
▁뉴캐슬	-14889
▁상에서	-14890
▁지상파	-14891
세기까지	-14892
▁live	-14893
▁판매하는	-14894
▁활약으로	-14895
pm	-14896
공파	-14897
년제	-14898
훈을	-14899
▁단말	-14900
▁황족	-14901
▁대륙의	-14902
▁수용할	-14903
▁저항을	-14904
▁철학적	-14905
▁디자인은	-14906
▁히틀러는	-14907
▁앗	-14908
망은	-14909
플레	-14910
▁do	-14911
▁권장	-14912
▁베른	-14913
▁수축	-14914
▁장사	-14915
▁탐구	-14916
층에서	-14917
▁3.5	-14918
▁발달한	-14919
▁전까지는	-14920
▁쿠데타를	-14921
▁실시되었다	-14922
니치	-14923
황제	-14924
▁긴장	-14925
▁치른	-14926
▁휩쓸	-14927
▁맡기도	-14928
▁묘사한	-14929
▁시애틀	-14930
▁연이어	-14931
▁고기	-14932
▁고산	-14933
▁나은	-14934
▁니혼	-14935
▁대패	-14936
▁상공	-14937
▁트란	-14938
▁nas	-14939
▁강화를	-14940
▁생방송	-14941
▁지역인	-14942
▁참가할	-14943
▁뉴욕에서	-14944
▁배우이자	-14945
나에	-14946
아스	-14947
창이	-14948
행동	-14949
600	-14950
▁경연	-14951
▁만료	-14952
▁박스	-14953
▁제니	-14954
▁주사	-14955
▁투항	-14956
▁포드	-14957
▁풍속	-14958
▁헬레	-14959
각으로	-14960
▁220	-14961
▁방송이	-14962
▁1848	-14963
▁노선으로	-14964
▁사용되어	-14965
▁국가대표팀은	-14966
밴드	-14967
질러	-14968
▁글자	-14969
▁빌라	-14970
▁사리	-14971
▁스칸	-14972
▁이득	-14973
▁자란	-14974
▁철폐	-14975
대학을	-14976
▁도르트	-14977
▁혁명이	-14978
▁전해지는	-14979
▁알렉산드르	-14980
더가	-14981
락은	-14982
청과	-14983
▁89	-14984
▁렌즈	-14985
▁이렇	-14986
▁캄파	-14987
▁내리고	-14988
▁옥스퍼드	-14989
▁임명하였다	-14990
기니	-14991
기둥	-14992
루냐	-14993
700	-14994
▁대합	-14995
▁드레	-14996
▁균형을	-14997
▁무궁화	-14998
▁아라곤	-14999
▁작전에	-15000
▁패했다	-15001
▁유지하기	-15002
련된	-15003
좌를	-15004
▁이태	-15005
▁정서	-15006
▁지장	-15007
는다는	-15008
루이스	-15009
▁성향의	-15010
▁스테파	-15011
▁의문을	-15012
▁이론이	-15013
▁part	-15014
az	-15015
나서	-15016
날레	-15017
후를	-15018
▁날은	-15019
▁대영	-15020
▁마천	-15021
▁맡는	-15022
▁부파	-15023
▁입구	-15024
▁터보	-15025
▁기업이	-15026
▁성향을	-15027
과정에서	-15028
▁사용자의	-15029
▁입학하여	-15030
▁설치하였다	-15031
gr	-15032
거가	-15033
▁과반	-15034
▁대북	-15035
▁징병	-15036
▁달라고	-15037
▁박영효	-15038
▁음악과	-15039
▁플라이	-15040
▁효과는	-15041
▁후기에	-15042
▁1882	-15043
▁아직까지	-15044
▁정당이다	-15045
▁가나가와현	-15046
▁담당하였다	-15047
▁꿀	-15048
오나	-15049
_17	-15050
▁83	-15051
▁공방	-15052
▁번은	-15053
▁산둥	-15054
▁선동	-15055
▁재일	-15056
▁적어	-15057
▁충북	-15058
년대까지	-15059
▁의회에서	-15060
:2	-15061
ai	-15062
산성	-15063
ord	-15064
▁당원	-15065
▁매킨	-15066
▁부재	-15067
▁황도	-15068
비치는	-15069
▁너무나	-15070
▁대기업	-15071
▁대대로	-15072
▁주계열	-15073
▁노래이다	-15074
▁등장인물	-15075
▁개발하였다	-15076
독한	-15077
▁생겼	-15078
▁선행	-15079
▁실재	-15080
▁씨는	-15081
▁예는	-15082
▁쪽에	-15083
▁천거	-15084
▁티켓	-15085
이었을	-15086
▁경기로	-15087
▁구단은	-15088
▁분야를	-15089
▁이조참	-15090
▁오카야마	-15091
▁이승만은	-15092
▁역임했으며	-15093
공연	-15094
나스	-15095
예가	-15096
▁간략	-15097
▁메뉴	-15098
▁차원	-15099
▁취업	-15100
ound	-15101
▁논쟁을	-15102
▁몬테네	-15103
▁시작할	-15104
▁어렵게	-15105
▁유지할	-15106
▁토리노	-15107
▁흥미를	-15108
▁만들었고	-15109
▁활동하던	-15110
▁조선로동당	-15111
▁엇	-15112
강한	-15113
iki	-15114
▁군부	-15115
▁나주	-15116
▁반포	-15117
▁중수	-15118
리라고	-15119
리아를	-15120
▁목록에	-15121
▁언론인	-15122
▁종목이다	-15123
제곱	-15124
▁ec	-15125
▁qu	-15126
▁발병	-15127
▁번영	-15128
▁인과	-15129
▁정인	-15130
▁한큐	-15131
▁이바지	-15132
▁인간과	-15133
▁인물을	-15134
▁참여할	-15135
▁체제의	-15136
▁한사람	-15137
▁함대를	-15138
▁실시했다	-15139
▁적용된다	-15140
▁경기장으로	-15141
po	-15142
▁콜린	-15143
▁헬싱	-15144
전에는	-15145
▁드러머	-15146
▁산맥의	-15147
▁원소의	-15148
▁전쟁과	-15149
▁애리조나	-15150
▁1,500	-15151
▁92	-15152
▁사의	-15153
▁어찌	-15154
▁옮긴	-15155
▁우의	-15156
▁케빈	-15157
블랜드	-15158
▁갈등이	-15159
▁무리를	-15160
▁국내에서	-15161
▁해당되는	-15162
▁받아들였다	-15163
▁팔레스타인	-15164
불이	-15165
욱은	-15166
형제	-15167
▁6,	-15168
▁기수	-15169
▁시합	-15170
▁요인	-15171
▁장제	-15172
▁체인	-15173
▁탄도	-15174
▁90%	-15175
▁시대는	-15176
▁장르의	-15177
▁제목은	-15178
▁지방도	-15179
▁진행을	-15180
▁하루에	-15181
▁공화국이	-15182
▁영향력이	-15183
▁후지와라노	-15184
부작	-15185
승은	-15186
황은	-15187
▁가신	-15188
▁섬이	-15189
▁수령	-15190
▁연희	-15191
▁영산	-15192
▁유료	-15193
▁종착	-15194
▁평의	-15195
사에게	-15196
▁역할은	-15197
▁작용하는	-15198
include	-15199
▁썬	-15200
건축	-15201
▁cl	-15202
▁면제	-15203
▁보드	-15204
▁오류	-15205
▁자아	-15206
▁전산	-15207
▁진해	-15208
▁차츰	-15209
스트에	-15210
▁개인적	-15211
▁걸쳐서	-15212
▁도덕적	-15213
▁도카이도	-15214
▁동치이다	-15215
▁못했지만	-15216
▁클럽으로	-15217
ke	-15218
트넘	-15219
▁노이	-15220
개국이	-15221
▁넘어서	-15222
▁안전한	-15223
▁헬리콥	-15224
▁예선에서	-15225
▁pe	-15226
▁강철	-15227
▁경작	-15228
▁넣는	-15229
▁소극	-15230
▁우드	-15231
▁포착	-15232
▁경제는	-15233
▁노래가	-15234
▁두개의	-15235
▁부작용	-15236
▁제한된	-15237
▁천문학	-15238
▁밝혀지지	-15239
▁보존되어	-15240
타워	-15241
▁et	-15242
▁방콕	-15243
▁병이	-15244
▁표본	-15245
▁건조한	-15246
▁대표는	-15247
▁명확히	-15248
▁예컨대	-15249
▁위치가	-15250
▁음반의	-15251
▁주도한	-15252
▁침공을	-15253
▁학생이	-15254
▁의미이다	-15255
▁프로세서	-15256
탄이	-15257
▁레전	-15258
▁휴식	-15259
▁day	-15260
▁아키타	-15261
▁시작하고	-15262
▁지역에는	-15263
▁형성되었다	-15264
기아	-15265
니오	-15266
▁7,	-15267
▁듣지	-15268
▁압록	-15269
▁염려	-15270
▁파우	-15271
▁혼동	-15272
승으로	-15273
▁출발하여	-15274
▁효율적으로	-15275
▁결핵	-15276
▁빅뱅	-15277
▁자회	-15278
▁학위	-15279
▁항목	-15280
차례의	-15281
▁가문을	-15282
▁자원을	-15283
▁comp	-15284
▁이승만의	-15285
파울	-15286
_18	-15287
▁국장	-15288
▁지극	-15289
▁현종	-15290
▁공격수	-15291
▁빠졌다	-15292
▁신앙을	-15293
▁평론가	-15294
▁표현은	-15295
▁하노버	-15296
▁주인공으로	-15297
지부	-15298
▁sd	-15299
▁갑옷	-15300
▁기고	-15301
▁앞선	-15302
▁유비	-15303
▁총장	-15304
▁치세	-15305
▁포털	-15306
▁피로	-15307
▁헌정	-15308
지방법원	-15309
//	-15310
요가	-15311
▁공존	-15312
▁동력	-15313
▁많지	-15314
▁블로	-15315
▁침묵	-15316
라에몽	-15317
브리엘	-15318
연대는	-15319
▁간신히	-15320
▁믿었다	-15321
▁선언을	-15322
▁승리에	-15323
음으로써	-15324
공과	-15325
내지	-15326
시게	-15327
-13	-15328
▁상연	-15329
▁온건	-15330
▁제너	-15331
▁터뜨	-15332
센터는	-15333
▁1883	-15334
▁기관이다	-15335
▁사용하게	-15336
복이	-15337
트루	-15338
티를	-15339
ans	-15340
▁생체	-15341
▁서원	-15342
▁시어	-15343
▁동등한	-15344
▁똑같이	-15345
▁용인시	-15346
▁움직임이	-15347
▁작품에서	-15348
▁서울특별시의	-15349
네를	-15350
순의	-15351
호텔	-15352
▁볼프	-15353
▁집정	-15354
▁원칙을	-15355
▁새누리당	-15356
▁스트리트	-15357
▁여우주연	-15358
▁만들어진다	-15359
▁클리블랜드	-15360
")	-15361
▁콰	-15362
배의	-15363
하키	-15364
▁by	-15365
▁개헌	-15366
▁발령	-15367
▁방치	-15368
▁유혹	-15369
▁최성	-15370
지역을	-15371
▁기반한	-15372
▁컴퓨팅	-15373
▁형식은	-15374
▁흩어져	-15375
▁조약으로	-15376
▁독립적으로	-15377
히데	-15378
▁낙하	-15379
▁인명	-15380
▁자결	-15381
▁전수	-15382
▁짧고	-15383
▁되므로	-15384
▁되어야	-15385
▁사무를	-15386
▁요리토	-15387
▁간격으로	-15388
▁공화국은	-15389
▁대규모의	-15390
▁섀	-15391
출력	-15392
코딩	-15393
ife	-15394
▁대안	-15395
▁모호	-15396
▁세네	-15397
▁습윤	-15398
▁유의	-15399
▁카시	-15400
▁화엄	-15401
교회의	-15402
▁달리는	-15403
▁청와대	-15404
▁패러디	-15405
개씩	-15406
도스	-15407
컴퓨	-15408
▁금호	-15409
▁지는	-15410
▁회피	-15411
글라데	-15412
기관이	-15413
▁1,0	-15414
▁게이오	-15415
▁서로의	-15416
▁아이폰	-15417
▁의지를	-15418
▁정책의	-15419
▁진출할	-15420
pg	-15421
시인	-15422
▁보라	-15423
▁현악	-15424
가능한	-15425
순위로	-15426
프레스	-15427
▁노래로	-15428
▁못했던	-15429
▁장애인	-15430
▁전투로	-15431
▁tour	-15432
하였으므로	-15433
가족	-15434
네마	-15435
분열	-15436
▁가자	-15437
▁서인	-15438
▁송신	-15439
▁온난	-15440
▁가문이	-15441
▁기법을	-15442
▁신주쿠	-15443
▁중국을	-15444
비오	-15445
위성	-15446
처의	-15447
체계	-15448
▁격투	-15449
▁더비	-15450
▁시속	-15451
▁정작	-15452
▁출석	-15453
펜하겐	-15454
▁성적이	-15455
▁양식의	-15456
▁유럽에	-15457
▁자료에	-15458
▁영국으로	-15459
▁베네수엘라	-15460
▁촛	-15461
달마	-15462
적과	-15463
_20	-15464
▁승용	-15465
▁축성	-15466
▁커서	-15467
▁가리켜	-15468
▁공격은	-15469
▁중심을	-15470
▁차례에	-15471
▁청주시	-15472
▁필리프	-15473
▁종교개혁	-15474
▁오케스트라	-15475
▁대각	-15476
▁밀리	-15477
▁앙골	-15478
▁오아	-15479
▁우회	-15480
▁저널	-15481
▁첼시	-15482
▁비중을	-15483
▁온도는	-15484
▁조조는	-15485
▁크레이	-15486
▁드라이브	-15487
▁소설이다	-15488
▁파견하여	-15489
▁싱어송라이터이다	-15490
xt	-15491
사유	-15492
청구	-15493
훈이	-15494
act	-15495
▁김원	-15496
▁느낄	-15497
▁진한	-15498
고에서	-15499
▁모았다	-15500
▁중국은	-15501
광은	-15502
맨의	-15503
ich	-15504
▁이겨	-15505
▁정성	-15506
▁하동	-15507
▁가솔린	-15508
▁것과는	-15509
▁기술적	-15510
▁부드럽	-15511
▁부인은	-15512
▁러시아와	-15513
▁언급했다	-15514
▁music	-15515
▁디트로이트	-15516
▁스트라이커	-15517
광이	-15518
테크	-15519
▁어촌	-15520
▁이송	-15521
▁청룡	-15522
▁파기	-15523
▁해저	-15524
ance	-15525
▁불안정	-15526
▁소나무	-15527
▁시트콤	-15528
▁조반니	-15529
▁파일럿	-15530
▁도르트문	-15531
▁하나로서	-15532
▁형성하는	-15533
세손	-15534
▁그외	-15535
▁로버	-15536
▁처럼	-15537
▁단어가	-15538
▁여겼다	-15539
▁자료는	-15540
▁결승전에	-15541
▁개통되었다	-15542
그가	-15543
길은	-15544
런은	-15545
전차	-15546
표의	-15547
-09	-15548
▁다듬	-15549
▁선원	-15550
▁신동	-15551
▁올드	-15552
▁abc	-15553
▁무솔리	-15554
▁비중이	-15555
▁왕국이	-15556
▁정보는	-15557
▁정상에	-15558
▁질문에	-15559
▁학명은	-15560
▁항성의	-15561
방향으로	-15562
▁우루과이	-15563
▁익스플로	-15564
▁경상남도의	-15565
▁프란체스코	-15566
▁흠	-15567
▁키르	-15568
▁폭이	-15569
▁후세	-15570
▁금요일	-15571
▁천황은	-15572
지역에서	-15573
▁진행하였다	-15574
기갑	-15575
▁검거	-15576
▁공성	-15577
▁대역	-15578
▁동문	-15579
▁부시	-15580
▁헌신	-15581
▁헤어	-15582
박물관	-15583
▁교회에	-15584
▁부르게	-15585
▁일본국	-15586
▁화제를	-15587
▁환자의	-15588
▁미네소타	-15589
▁지칭하는	-15590
▁타이베이	-15591
르다	-15592
에미	-15593
▁별을	-15594
▁부합	-15595
▁왕과	-15596
▁잠깐	-15597
▁gdp	-15598
▁강으로	-15599
▁공간에	-15600
▁과학의	-15601
▁체제로	-15602
▁지원하기	-15603
▁패하였다	-15604
유와	-15605
▁면을	-15606
▁잦은	-15607
▁전전	-15608
▁함흥	-15609
▁강하다	-15610
▁스페인어	-15611
▁어머니와	-15612
▁통과하는	-15613
▁프랑스로	-15614
초가	-15615
▁93	-15616
▁나갈	-15617
▁로얄	-15618
▁류큐	-15619
▁선로	-15620
▁저하	-15621
▁콜라	-15622
▁투르	-15623
▁하코	-15624
로스는	-15625
시켜야	-15626
▁top	-15627
▁규칙을	-15628
▁반도체	-15629
▁복소수	-15630
▁생활에	-15631
▁제한을	-15632
▁아이치현	-15633
▁이용되고	-15634
비뉴	-15635
헤이	-15636
▁닮은	-15637
▁리옹	-15638
▁보증	-15639
▁송파	-15640
▁에레	-15641
▁자생	-15642
▁종영	-15643
▁코난	-15644
▁했기	-15645
리기도	-15646
▁교육에	-15647
▁이르게	-15648
▁전화를	-15649
▁것이지만	-15650
▁전반적인	-15651
▁찔	-15652
망에	-15653
슨을	-15654
조부	-15655
통과	-15656
▁구형	-15657
▁도래	-15658
▁영장	-15659
▁다리가	-15660
▁로스쿨	-15661
▁반란이	-15662
▁분석을	-15663
▁사단은	-15664
▁의회에	-15665
▁둘러싸인	-15666
▁항공사로	-15667
fb	-15668
먼드	-15669
조리	-15670
▁송출	-15671
▁주조	-15672
▁하치	-15673
▁사이로	-15674
▁오른손	-15675
▁지역구	-15676
▁앰	-15677
드릭	-15678
약의	-15679
자르	-15680
old	-15681
▁국유	-15682
▁기와	-15683
▁높여	-15684
▁배운	-15685
▁수교	-15686
▁자크	-15687
팀이다	-15688
▁api	-15689
▁건축가	-15690
▁세우는	-15691
▁우려가	-15692
▁일반화	-15693
▁활동하며	-15694
▁튼	-15695
나리	-15696
독을	-15697
메트	-15698
연료	-15699
추진	-15700
▁동정	-15701
▁모범	-15702
나에서	-15703
▁그래도	-15704
▁기준이	-15705
▁블루스	-15706
▁스릴러	-15707
▁조약은	-15708
▁프로모	-15709
▁프로그래머	-15710
up	-15711
▁깜	-15712
▁국외	-15713
▁반전	-15714
▁법에	-15715
▁상담	-15716
▁숨을	-15717
▁이천	-15718
대회를	-15719
자리가	-15720
▁가라앉	-15721
▁과도한	-15722
▁달러에	-15723
▁병력이	-15724
▁스즈키	-15725
▁장점이	-15726
▁프레데	-15727
▁혐의를	-15728
▁황제를	-15729
스테르담	-15730
▁가르침을	-15731
▁방글라데	-15732
▁불과하다	-15733
▁아시안컵	-15734
▁없었으며	-15735
▁최고인민	-15736
▁쟈	-15737
두의	-15738
처가	-15739
▁er	-15740
▁가구	-15741
▁맛이	-15742
▁식당	-15743
▁우파	-15744
▁지수	-15745
▁휘말	-15746
▁거리의	-15747
▁경력이	-15748
▁저널리	-15749
▁이용하고	-15750
▁국가대표팀에서	-15751
gm	-15752
▁데미	-15753
▁조인	-15754
▁피할	-15755
▁10,	-15756
▁외교관	-15757
▁1868	-15758
▁들어왔다	-15759
▁영역에서	-15760
지않	-15761
통상	-15762
▁기인	-15763
▁노바	-15764
▁누적	-15765
▁모자	-15766
▁세션	-15767
▁각자의	-15768
▁등에게	-15769
▁명령에	-15770
▁바탕에	-15771
▁생각한	-15772
▁안되는	-15773
▁전기를	-15774
▁전략적	-15775
▁계속되는	-15776
▁클럽에서	-15777
재단	-15778
ata	-15779
~10	-15780
▁랴오	-15781
▁실버	-15782
▁유목	-15783
▁읽는	-15784
▁칼라	-15785
내었다	-15786
▁led	-15787
▁교회가	-15788
▁미루어	-15789
▁것입니다	-15790
▁그레고리	-15791
▁입단하여	-15792
▁경기장에서	-15793
름의	-15794
-18	-15795
▁04	-15796
▁교양	-15797
▁낮다	-15798
▁레온	-15799
▁뱅크	-15800
▁잡는	-15801
▁정몽	-15802
▁체조	-15803
지라도	-15804
▁로마로	-15805
▁스미스	-15806
▁시신을	-15807
슈타인은	-15808
▁your	-15809
▁콘서트를	-15810
▁프랑스를	-15811
▁univers	-15812
▁싼	-15813
길에	-15814
오자	-15815
▁럭비	-15816
▁일산	-15817
▁자켓	-15818
▁장이	-15819
▁파는	-15820
▁강의를	-15821
▁구하기	-15822
▁작품인	-15823
▁집합을	-15824
▁한다면	-15825
박물관에	-15826
▁시작되었고	-15827
onlyinclude	-15828
궁에	-15829
해석	-15830
▁달고	-15831
▁복선	-15832
▁언니	-15833
▁이범	-15834
▁잠정	-15835
역이며	-15836
▁마르틴	-15837
▁선거인	-15838
▁총리는	-15839
▁시즌부터	-15840
▁후계자로	-15841
뤘다	-15842
약이	-15843
▁더빙	-15844
▁몽고	-15845
▁소울	-15846
▁칼뱅	-15847
▁팔아	-15848
로스의	-15849
▁3-1	-15850
▁공군의	-15851
▁다목적	-15852
▁예정인	-15853
▁지나가	-15854
▁부족으로	-15855
▁분포하고	-15856
▁스페인은	-15857
▁어머니를	-15858
▁죠	-15859
지정	-15860
하루	-15861
▁바꿨	-15862
▁오크	-15863
ical	-15864
▁공격이	-15865
▁네티즌	-15866
▁단체인	-15867
▁사상의	-15868
▁운행이	-15869
▁웨스턴	-15870
▁자기가	-15871
▁지위에	-15872
지역으로	-15873
▁극장에서	-15874
▁전해지고	-15875
▁코펜하겐	-15876
▁대한민국에는	-15877
▁맘	-15878
죄로	-15879
질에	-15880
che	-15881
▁전담	-15882
▁조슈	-15883
년경에	-15884
직하고	-15885
▁1/3	-15886
▁가지지	-15887
▁근거가	-15888
▁맡았던	-15889
▁멤버가	-15890
▁숫자는	-15891
▁조지프	-15892
▁충청도	-15893
▁가와사키	-15894
▁안정적인	-15895
▁공헌하였다	-15896
▁승강장으로	-15897
절로	-15898
태는	-15899
▁감수	-15900
▁누이	-15901
▁오로	-15902
스터의	-15903
▁남동생	-15904
▁마오쩌	-15905
▁철저히	-15906
▁철학을	-15907
▁완벽하게	-15908
법률	-15909
히지	-15910
▁마우	-15911
▁아쿠	-15912
▁추첨	-15913
▁탈취	-15914
▁생전에	-15915
▁의회가	-15916
▁중앙의	-15917
▁아무것도	-15918
▁애틀랜타	-15919
▁후반부터	-15920
.,	-15921
▁굶	-15922
보리	-15923
서비	-15924
오에	-15925
의학	-15926
임의	-15927
통치	-15928
▁보강	-15929
▁피핀	-15930
사로서	-15931
▁계통의	-15932
▁비교해	-15933
▁성적은	-15934
▁음악이	-15935
▁제의를	-15936
▁철저한	-15937
▁최연소	-15938
▁푸에르	-15939
박을	-15940
사도	-15941
순이	-15942
장로	-15943
티시	-15944
▁선봉	-15945
▁원활	-15946
▁인가	-15947
▁증폭	-15948
살이풀	-15949
▁바다의	-15950
▁비영리	-15951
▁상소를	-15952
▁알프레	-15953
▁이기고	-15954
▁프리메라	-15955
▁효과적인	-15956
종인	-15957
회원	-15958
▁aw	-15959
▁부평	-15960
▁원통	-15961
▁유라	-15962
▁조국	-15963
▁죽기	-15964
▁체크	-15965
▁혼성	-15966
▁par	-15967
▁결혼한	-15968
▁식물의	-15969
▁정리는	-15970
▁팀이다	-15971
▁하겠다	-15972
▁회사에	-15973
▁수행하고	-15974
sa	-15975
막이	-15976
방과	-15977
사범	-15978
▁국의	-15979
▁국한	-15980
▁롤링	-15981
▁배수	-15982
▁악의	-15983
▁외래	-15984
▁이이	-15985
▁점수	-15986
▁칼로	-15987
되다가	-15988
학과에	-15989
▁iii	-15990
▁교사로	-15991
▁그것의	-15992
▁이스탄	-15993
▁카이로	-15994
▁살아있는	-15995
▁프랑스령	-15996
득점	-15997
마귀	-15998
불의	-15999
상업	-16000
서인	-16001
타우	-16002
▁간혹	-16003
▁고토	-16004
▁그저	-16005
▁몸은	-16006
▁신입	-16007
▁아빠	-16008
▁암석	-16009
▁성남시	-16010
▁예술가	-16011
▁체결된	-16012
▁스타일을	-16013
▁없으므로	-16014
▁주도이며	-16015
▁클라우드	-16016
▁효율적인	-16017
▁다이아몬드	-16018
▁대체되었다	-16019
ee	-16020
근을	-16021
맨은	-16022
변속	-16023
있어	-16024
쿠는	-16025
▁개기	-16026
▁과장	-16027
▁누나	-16028
▁백두	-16029
▁접수	-16030
▁찬양	-16031
▁호족	-16032
▁자유의	-16033
▁정리에	-16034
▁지리적	-16035
▁인디애나	-16036
▁회장으로	-16037
▁요구하였다	-16038
▁가톨릭교회의	-16039
마크	-16040
송을	-16041
신학	-16042
월을	-16043
절에	-16044
절의	-16045
.3%	-16046
ish	-16047
▁고창	-16048
▁벌금	-16049
▁불참	-16050
▁자제	-16051
▁질환	-16052
▁허리	-16053
단에는	-16054
클리드	-16055
▁갈리아	-16056
▁걸리는	-16057
▁대표를	-16058
▁동서로	-16059
▁문자는	-16060
▁종류로	-16061
▁행위는	-16062
▁기록하였고	-16063
▁이탈리아는	-16064
▁샐	-16065
초와	-16066
케의	-16067
-50	-16068
.11	-16069
▁농어	-16070
▁러셀	-16071
▁무작	-16072
▁블레	-16073
▁성악	-16074
▁인재	-16075
▁천천	-16076
▁최강	-16077
▁하키	-16078
▁현을	-16079
단체의	-16080
으려는	-16081
▁계획의	-16082
▁생성된	-16083
▁장소를	-16084
▁전역을	-16085
▁기록이다	-16086
▁청나라의	-16087
▁아프리카의	-16088
▁우즈베키스탄	-16089
ous	-16090
▁애칭	-16091
▁위를	-16092
▁폭풍	-16093
▁450	-16094
▁아나톨	-16095
▁장치가	-16096
▁전하고	-16097
▁카메룬	-16098
▁태생의	-16099
▁대한항공	-16100
▁종료되었다	-16101
록은	-16102
카쓰	-16103
턴이	-16104
▁강대	-16105
▁씨앗	-16106
▁워너	-16107
▁느끼게	-16108
▁다양체	-16109
적이라고	-16110
▁받았는데	-16111
▁도서관이다	-16112
기며	-16113
분한	-16114
속도	-16115
▁계수	-16116
▁노조	-16117
▁모른	-16118
▁비전	-16119
▁연인	-16120
▁정이	-16121
▁조형	-16122
▁모니터	-16123
▁활동의	-16124
리우스는	-16125
복합	-16126
부리	-16127
비용	-16128
스레	-16129
코타	-16130
▁경복	-16131
▁손잡	-16132
▁짓는	-16133
▁퇴장	-16134
▁회상	-16135
갔으나	-16136
였다는	-16137
▁가로지	-16138
▁검은색	-16139
▁단계에	-16140
▁대사헌	-16141
▁밴쿠버	-16142
▁어느날	-16143
▁독일군은	-16144
▁이동하는	-16145
▁진행했다	-16146
▁반대하였다	-16147
▁프란치스코	-16148
끄러	-16149
목과	-16150
ake	-16151
▁우측	-16152
▁정전	-16153
▁쪽이	-16154
▁70%	-16155
▁방안을	-16156
▁청동기	-16157
▁관련되어	-16158
▁라이브러	-16159
례로	-16160
보건	-16161
현실	-16162
.4%	-16163
.7%	-16164
▁ob	-16165
▁매체	-16166
▁시몬	-16167
▁얘기	-16168
▁일일	-16169
▁파병	-16170
지거나	-16171
▁국내에	-16172
▁기대를	-16173
▁기원은	-16174
▁문화는	-16175
▁법무부	-16176
▁가브리엘	-16177
▁비교하여	-16178
▁중요하게	-16179
▁자연수이다	-16180
다드	-16181
도라	-16182
타스	-16183
티코	-16184
▁군정	-16185
▁기뻐	-16186
▁이회	-16187
우리는	-16188
화하기	-16189
▁사형을	-16190
▁주파수	-16191
▁케네디	-16192
▁거리에서	-16193
든다	-16194
마디	-16195
▁91	-16196
▁규탄	-16197
▁해왕	-16198
억원을	-16199
▁그리는	-16200
▁나이는	-16201
▁대중의	-16202
▁본부를	-16203
▁사실에	-16204
▁비판하는	-16205
▁뿐이었다	-16206
심에	-16207
인당	-16208
포시	-16209
▁미륵	-16210
▁사쿠	-16211
▁서귀	-16212
▁호크	-16213
▁끌어들	-16214
▁노래의	-16215
▁상파울	-16216
▁요구에	-16217
▁존재로	-16218
▁태양과	-16219
▁패하여	-16220
▁평가가	-16221
들이었다	-16222
▁공산당의	-16223
▁설립하고	-16224
▁출전하지	-16225
▁경상북도의	-16226
▁갚	-16227
승이	-16228
행렬	-16229
▁군산	-16230
▁극우	-16231
▁김제	-16232
▁뛰는	-16233
▁의문	-16234
▁주입	-16235
▁지쿠	-16236
▁1.0	-16237
▁남자가	-16238
▁따왔다	-16239
▁산스크	-16240
▁서양의	-16241
▁영토로	-16242
▁자라는	-16243
▁책에서	-16244
▁도라에몽	-16245
▁우크라이나의	-16246
나시	-16247
커를	-16248
ref	-16249
▁군용	-16250
▁남하	-16251
▁델타	-16252
▁무술	-16253
▁양육	-16254
▁자서	-16255
▁프론	-16256
쳤으나	-16257
▁1-1	-16258
▁남았다	-16259
▁수원시	-16260
▁안타를	-16261
▁오클랜드	-16262
▁캐릭터가	-16263
유산	-16264
▁고원	-16265
▁맛을	-16266
▁법은	-16267
학으로	-16268
▁그림은	-16269
▁맞았다	-16270
▁사업이	-16271
▁서부의	-16272
▁시장이	-16273
▁제품의	-16274
▁발행하는	-16275
▁보호하는	-16276
▁광양	-16277
▁단원	-16278
▁돕기	-16279
▁수락	-16280
▁야외	-16281
▁이코	-16282
▁남성의	-16283
▁반응이	-16284
▁선생의	-16285
▁시위가	-16286
▁원정을	-16287
▁지시를	-16288
▁시즈오카	-16289
▁일으킨다	-16290
▁캉	-16291
남부	-16292
내려	-16293
증에	-16294
.6%	-16295
▁방화	-16296
▁번창	-16297
▁수로	-16298
▁아세	-16299
▁장인	-16300
▁좌측	-16301
시간에	-16302
진에서	-16303
집으로	-16304
▁가족이	-16305
▁광고를	-16306
▁기관이	-16307
▁받았던	-16308
▁산이다	-16309
▁순서로	-16310
▁영원히	-16311
▁영토가	-16312
▁월요일	-16313
▁국가대표로	-16314
▁프로그램인	-16315
년엔	-16316
만년	-16317
맥을	-16318
▁때를	-16319
▁세바	-16320
▁원반	-16321
▁통보	-16322
▁수사를	-16323
▁이론과	-16324
▁포로가	-16325
▁회장이	-16326
▁강조하는	-16327
▁구성하고	-16328
▁들어오는	-16329
▁방송되는	-16330
wa	-16331
매를	-16332
통에	-16333
▁경과	-16334
▁귀속	-16335
▁이양	-16336
▁코코	-16337
▁편지	-16338
▁경제를	-16339
▁구성은	-16340
▁문화에	-16341
▁비롯된	-16342
▁쌓았다	-16343
▁메커니즘	-16344
▁이번에는	-16345
▁장남으로	-16346
▁콘스탄티	-16347
▁페이스북	-16348
비언	-16349
층과	-16350
▁갤러	-16351
▁경호	-16352
▁부다	-16353
▁사슴	-16354
▁산성	-16355
▁악마	-16356
▁작다	-16357
▁페니	-16358
▁폭파	-16359
▁피카	-16360
심에서	-16361
▁gir	-16362
▁검찰은	-16363
▁등지에	-16364
▁따르고	-16365
▁장기간	-16366
▁총애를	-16367
▁회원국	-16368
▁연구에서	-16369
라운드에서	-16370
로우	-16371
▁고아	-16372
▁국적	-16373
▁돕는	-16374
▁바흐	-16375
▁발동	-16376
▁요격	-16377
▁카프	-16378
▁코소	-16379
▁프롤	-16380
▁호쿠	-16381
레이크	-16382
▁동로마	-16383
▁시신은	-16384
▁않다고	-16385
▁자녀를	-16386
▁추가된	-16387
▁하늘의	-16388
강전에서	-16389
▁벨라루스	-16390
~8	-16391
리마	-16392
살에	-16393
out	-16394
▁94	-16395
▁구한	-16396
▁몰두	-16397
▁발기	-16398
▁백과	-16399
▁일진	-16400
▁전락	-16401
▁토크	-16402
▁바다를	-16403
▁보이게	-16404
▁부모의	-16405
▁뿌리를	-16406
▁컨트리	-16407
▁거치면서	-16408
▁분류하고	-16409
▁투수이다	-16410
▁개칭되었다	-16411
티와	-16412
▁실무	-16413
▁카즈	-16414
▁705	-16415
▁모른다	-16416
▁문학의	-16417
▁오이타	-16418
▁의사소	-16419
▁하늘을	-16420
▁현대에	-16421
▁거점으로	-16422
▁무시하고	-16423
▁미야자키	-16424
▁승리했다	-16425
▁여겨지는	-16426
▁조지아의	-16427
당할	-16428
또는	-16429
보국	-16430
분간	-16431
연수	-16432
일인	-16433
천사	-16434
▁보복	-16435
▁채취	-16436
▁가깝게	-16437
▁않다는	-16438
▁이사벨	-16439
거리에서	-16440
스트에서	-16441
▁쉴	-16442
매김	-16443
미네	-16444
배로	-16445
키타	-16446
터키	-16447
.2%	-16448
▁경인	-16449
▁분지	-16450
▁세습	-16451
▁셀레	-16452
▁입양	-16453
▁히메	-16454
놓았다	-16455
당했고	-16456
▁기술과	-16457
▁사쓰마	-16458
▁성능이	-16459
▁용어가	-16460
▁집합의	-16461
▁1866	-16462
▁정상적인	-16463
셨다	-16464
택이	-16465
▁경로	-16466
▁김윤	-16467
▁문과	-16468
▁섭정	-16469
▁성전	-16470
▁세비	-16471
▁스와	-16472
▁요하	-16473
▁재차	-16474
▁커플	-16475
되어서	-16476
크리트	-16477
▁두각을	-16478
▁소유한	-16479
▁자세를	-16480
▁중요시	-16481
▁효고현	-16482
▁1892	-16483
▁물리학자	-16484
▁유명하며	-16485
▁경제적으로	-16486
▁현대자동차	-16487
팀에	-16488
히토	-16489
▁말과	-16490
▁변광	-16491
▁보나	-16492
▁보낼	-16493
▁현직	-16494
▁1-2	-16495
▁cla	-16496
▁각지에	-16497
▁공격할	-16498
▁작성된	-16499
▁적었다	-16500
▁점성술	-16501
nn	-16502
그마	-16503
콜라	-16504
하우	-16505
▁불행	-16506
▁점거	-16507
▁직장	-16508
▁화해	-16509
바야시	-16510
운드의	-16511
중으로	-16512
▁공세를	-16513
▁관료로	-16514
▁향상을	-16515
▁훈장을	-16516
▁근본적인	-16517
▁없었지만	-16518
▁괄	-16519
선형	-16520
▁00	-16521
▁긴키	-16522
▁꿈꾸	-16523
▁충전	-16524
▁표지	-16525
협회의	-16526
▁레이싱	-16527
▁새끼를	-16528
▁선거로	-16529
▁솔로몬	-16530
▁예선에	-16531
▁일부의	-16532
▁지원이	-16533
▁히틀러	-16534
조판서를	-16535
ction	-16536
▁시즌에서	-16537
▁이론에서	-16538
▁$	-16539
말의	-16540
카에	-16541
▁드리	-16542
▁링크	-16543
▁미라	-16544
▁싸이	-16545
▁이현	-16546
▁트렌	-16547
스터를	-16548
▁검사를	-16549
▁남동쪽	-16550
▁오리온	-16551
▁연루되어	-16552
▁유래하였다	-16553
교사	-16554
녀의	-16555
▁eu	-16556
▁딸과	-16557
▁배에	-16558
▁시부	-16559
▁우아	-16560
▁유역	-16561
▁중형	-16562
▁해부	-16563
나가의	-16564
▁bla	-16565
▁간사이	-16566
▁장치는	-16567
▁주었고	-16568
▁패배한	-16569
▁프린스턴	-16570
▁필리핀의	-16571
어리	-16572
오게	-16573
위한	-16574
택은	-16575
테의	-16576
▁동탁	-16577
▁무서	-16578
▁비치	-16579
▁안나	-16580
▁알맞	-16581
▁적게	-16582
웨이트	-16583
조사를	-16584
▁3.0	-16585
▁gre	-16586
▁증상이	-16587
▁하나다	-16588
▁메릴랜드	-16589
승지	-16590
▁김명	-16591
▁부당	-16592
▁삼척	-16593
▁엔트	-16594
▁온다	-16595
▁총을	-16596
도르프	-16597
▁마누엘	-16598
▁후보는	-16599
하더라도	-16600
▁장소에서	-16601
▁공개하였다	-16602
▁릭	-16603
카리	-16604
틴은	-16605
.8%	-16606
▁급히	-16607
▁색이	-16608
▁온라	-16609
▁이건	-16610
▁재상	-16611
▁질문	-16612
▁거두며	-16613
▁경주시	-16614
▁공헌을	-16615
▁자연의	-16616
▁정권은	-16617
▁행성은	-16618
▁살아남은	-16619
▁인기있는	-16620
▁프로세스	-16621
▁산스크리트	-16622
▁코스타리카	-16623
언론	-16624
질과	-16625
▁고생	-16626
▁동등	-16627
▁박테	-16628
▁어업	-16629
체제를	-16630
▁볼로냐	-16631
▁빨간색	-16632
▁시절을	-16633
▁작사가	-16634
▁제한이	-16635
▁발견되며	-16636
▁함경북도	-16637
▁발달하였다	-16638
상도	-16639
▁군과	-16640
▁상급	-16641
▁오락	-16642
▁찍은	-16643
▁회로	-16644
들처럼	-16645
▁단계로	-16646
▁단계를	-16647
▁등번호	-16648
▁밖에서	-16649
▁방지하기	-16650
▁벌어지는	-16651
▁북서쪽으로	-16652
▁스튜디오에서	-16653
나기	-16654
랑의	-16655
약은	-16656
오던	-16657
▁남산	-16658
▁놓인	-16659
▁별세	-16660
▁부채	-16661
▁성명	-16662
▁쉽다	-16663
▁교황이	-16664
▁느끼는	-16665
설의	-16666
손이	-16667
_19	-16668
▁고든	-16669
▁나노	-16670
▁승점	-16671
▁예고	-16672
▁예하	-16673
▁음료	-16674
▁판사	-16675
화되고	-16676
▁고양시	-16677
▁수업을	-16678
▁정의된	-16679
▁참여를	-16680
▁출전을	-16681
▁삼국시대	-16682
▁유지했다	-16683
▁자료이다	-16684
▁승리하였다	-16685
▁파괴되었다	-16686
미스	-16687
바가	-16688
▁나루	-16689
▁실각	-16690
▁양측	-16691
▁집회	-16692
▁치는	-16693
▁표를	-16694
▁하프	-16695
왔으나	-16696
▁공로를	-16697
▁기관의	-16698
▁영국령	-16699
▁참석한	-16700
▁해에는	-16701
이었다는	-16702
▁1863	-16703
▁인테르나	-16704
▁암스테르담	-16705
▁산시	-16706
▁자진	-16707
▁포격	-16708
브리아	-16709
▁낳는다	-16710
▁밀도가	-16711
▁비율을	-16712
▁상태는	-16713
▁책으로	-16714
▁멤버이다	-16715
▁에너지의	-16716
▁전적으로	-16717
▁주인공이	-16718
▁거절하였다	-16719
▁광범위하게	-16720
트니	-16721
▁금환	-16722
▁끼고	-16723
▁단국	-16724
▁일기	-16725
도어가	-16726
번이나	-16727
▁뜻에서	-16728
▁소식이	-16729
▁아미노	-16730
▁인증을	-16731
▁방정식을	-16732
▁사이에서는	-16733
by	-16734
스투	-16735
월이	-16736
코르	-16737
▁나간	-16738
▁대접	-16739
▁마다	-16740
▁서스	-16741
▁우세	-16742
▁조롱	-16743
▁존스	-16744
▁거쳤다	-16745
▁무역을	-16746
▁아이콘	-16747
▁앨범이	-16748
▁여파로	-16749
▁연맹이	-16750
▁지분을	-16751
▁측에서	-16752
▁협회의	-16753
▁베네딕토	-16754
▁아이들을	-16755
▁은퇴했다	-16756
▁찢	-16757
공화	-16758
지던	-16759
▁상법	-16760
▁슬픔	-16761
▁습득	-16762
▁육체	-16763
▁정선	-16764
▁창녕	-16765
문제를	-16766
▁언론의	-16767
▁자메이	-16768
▁총리로	-16769
▁친구가	-16770
▁경기도의	-16771
▁기념하기	-16772
▁날카로운	-16773
▁분류한다	-16774
▁스타일의	-16775
▁의과대학	-16776
va	-16777
기하	-16778
송의	-16779
언이	-16780
▁af	-16781
▁발착	-16782
▁스킬	-16783
▁아소	-16784
▁재선	-16785
▁파인	-16786
약으로	-16787
▁경로를	-16788
▁볼티모	-16789
▁예로는	-16790
▁존재는	-16791
▁프레이	-16792
▁아들이며	-16793
▁여겨졌다	-16794
▁활동으로	-16795
버른	-16796
▁도피	-16797
▁펑크	-16798
분교는	-16799
에너지	-16800
▁대표가	-16801
▁산으로	-16802
▁대항하는	-16803
▁국제적으로	-16804
▁ge	-16805
▁가타	-16806
▁광명	-16807
▁카지	-16808
▁한달	-16809
분부터	-16810
선수로	-16811
좌상은	-16812
▁교류를	-16813
▁머리카	-16814
▁밝혀진	-16815
▁병원에	-16816
▁산티아	-16817
▁외국어	-16818
▁자국의	-16819
▁작업은	-16820
▁탁월한	-16821
▁http	-16822
▁경기장은	-16823
▁보호하고	-16824
▁이베리아	-16825
▁이산화탄	-16826
▁분리되었다	-16827
▁유래되었다	-16828
▁줄어들었다	-16829
||	-16830
경쟁	-16831
녀로	-16832
소인	-16833
옆면	-16834
차트	-16835
▁강행	-16836
▁공감	-16837
▁열려	-16838
▁일화	-16839
▁입는	-16840
▁측이	-16841
만명이	-16842
▁2~3	-16843
▁ebs	-16844
▁레오폴	-16845
▁문재인	-16846
▁방식에	-16847
▁움직일	-16848
▁이사를	-16849
▁투쟁을	-16850
월부터는	-16851
▁대다수의	-16852
▁정보통신	-16853
▁소속기관이다	-16854
▁국보	-16855
▁클러	-16856
▁tbs	-16857
▁왕조가	-16858
▁왕조는	-16859
▁주장도	-16860
▁1886	-16861
▁발탁되어	-16862
▁보이지만	-16863
▁북서부에	-16864
▁포함되지	-16865
▁중국에서는	-16866
▁애니메이션이다	-16867
ri	-16868
▁mb	-16869
▁교원	-16870
▁예가	-16871
▁유해	-16872
공사가	-16873
바이트	-16874
▁교황청	-16875
▁규정이	-16876
▁미하일	-16877
▁성격의	-16878
▁원칙에	-16879
▁직후에	-16880
▁결합하여	-16881
▁나타나지	-16882
▁인도차이나	-16883
▁챙	-16884
의는	-16885
▁넓고	-16886
▁등단	-16887
▁맞춘	-16888
▁밀란	-16889
▁벽돌	-16890
▁상해	-16891
▁윤휴	-16892
▁후배	-16893
▁희곡	-16894
방송을	-16895
번호는	-16896
익스피	-16897
정이다	-16898
퍼런스	-16899
▁것이기	-16900
▁결성한	-16901
▁단체가	-16902
▁연설을	-16903
▁유래는	-16904
▁탤런트	-16905
▁파시즘	-16906
▁페트로	-16907
디나비아	-16908
▁1893	-16909
▁주변에는	-16910
▁현장에서	-16911
▁제시하였다	-16912
▁체결하였다	-16913
▁아리스토텔레	-16914
감사	-16915
내가	-16916
orn	-16917
▁객원	-16918
▁나바	-16919
▁보리	-16920
▁복역	-16921
▁패해	-16922
회의에	-16923
▁목소리	-16924
▁브뤼셀	-16925
▁숫자를	-16926
▁연주를	-16927
▁적당한	-16928
▁증거를	-16929
▁클리어	-16930
대학으로	-16931
▁매끄러운	-16932
▁수행했다	-16933
▁진출하여	-16934
▁측정하는	-16935
▁나폴레옹은	-16936
▁채택되었다	-16937
▁딕	-16938
스페	-16939
토르	-16940
▁tc	-16941
▁만드	-16942
▁비엔	-16943
▁사신	-16944
▁아산	-16945
▁컸다	-16946
▁콘솔	-16947
▁회귀	-16948
▁히라	-16949
겠지만	-16950
▁모로코	-16951
▁비스타	-16952
▁수준을	-16953
▁이름에	-16954
▁장관이	-16955
nowiki	-16956
▁이전하였다	-16957
▁떡	-16958
러브	-16959
짐에	-16960
://	-16961
▁sv	-16962
▁둔다	-16963
▁엔터	-16964
▁역도	-16965
▁같다고	-16966
▁계승한	-16967
▁구성요	-16968
▁발전과	-16969
▁북유럽	-16970
▁아들은	-16971
▁오스카	-16972
▁일식은	-16973
▁1864	-16974
▁적용되는	-16975
▁진행되어	-16976
▁무산되었다	-16977
▁완성되었다	-16978
군인	-16979
벨트	-16980
_21	-16981
▁xp	-16982
▁거점	-16983
▁겪은	-16984
▁브랜	-16985
▁연립	-16986
▁청색	-16987
▁파고	-16988
▁포토	-16989
두었다	-16990
▁여지가	-16991
▁토트넘	-16992
시키는데	-16993
▁공장에서	-16994
▁당선되어	-16995
▁심지어는	-16996
▁자리하고	-16997
▁중앙정보	-16998
▁지나간다	-16999
▁공자	-17000
▁관제	-17001
▁기성	-17002
▁신민	-17003
▁쏘아	-17004
▁절벽	-17005
▁차관	-17006
그리스	-17007
▁per	-17008
▁나타날	-17009
▁북동부	-17010
▁시민의	-17011
▁요청에	-17012
▁공간으로	-17013
▁들어서면서	-17014
("	-17015
▁헥	-17016
께끼	-17017
디지	-17018
치료	-17019
-08	-17020
ach	-17021
▁대포	-17022
▁유러	-17023
▁프렌	-17024
▁wii	-17025
▁내무부	-17026
▁빠져나	-17027
▁이동할	-17028
▁화학적	-17029
▁명확하게	-17030
▁인상적인	-17031
▁fl	-17032
▁가중	-17033
▁오대	-17034
▁청계	-17035
▁켈트	-17036
▁호랑	-17037
나라가	-17038
당이다	-17039
▁가격은	-17040
▁동부의	-17041
▁벌이는	-17042
▁북서쪽	-17043
▁상대를	-17044
▁시간과	-17045
▁쓰시마	-17046
▁영화제	-17047
만으로는	-17048
▁1876	-17049
▁간주된다	-17050
▁국가들은	-17051
▁치명적인	-17052
▁일반적이다	-17053
▁세인트루이스	-17054
▁쪼	-17055
두가	-17056
부원	-17057
탑을	-17058
피에	-17059
▁격려	-17060
▁고장	-17061
▁복권	-17062
▁산요	-17063
▁재래	-17064
▁증진	-17065
프로세	-17066
▁구성을	-17067
▁기록과	-17068
▁단체는	-17069
▁뛰어넘	-17070
▁머물렀	-17071
▁부분일	-17072
▁언어가	-17073
▁외부의	-17074
▁1861	-17075
▁결승골을	-17076
▁서비스가	-17077
▁우에스기	-17078
칼리	-17079
▁글꼴	-17080
▁남미	-17081
▁늦은	-17082
▁불완	-17083
▁슈투	-17084
루스는	-17085
시이다	-17086
▁영국군	-17087
▁인해서	-17088
▁작가로	-17089
▁지내는	-17090
▁총독부	-17091
▁학교는	-17092
공화국의	-17093
▁삼층석탑	-17094
▁아랍에미	-17095
▁전반적으로	-17096
6,	-17097
대칭	-17098
창조	-17099
확인	-17100
▁ir	-17101
▁농부	-17102
▁전무	-17103
▁좌의	-17104
▁중원	-17105
▁3-0	-17106
▁만난다	-17107
▁만주국	-17108
▁바이킹	-17109
▁인물은	-17110
▁조조가	-17111
▁클레이	-17112
▁time	-17113
▁교황으로	-17114
▁총칭이다	-17115
▁캐릭터의	-17116
▁표기한다	-17117
▁헛	-17118
급은	-17119
모스	-17120
정지	-17121
희를	-17122
.1%	-17123
ars	-17124
ics	-17125
▁기저	-17126
▁냉전	-17127
▁미식	-17128
▁반죽	-17129
▁선천	-17130
▁싸웠	-17131
▁앞세	-17132
▁양대	-17133
▁하비	-17134
번지에	-17135
▁ios	-17136
▁구축함	-17137
▁나무를	-17138
▁머리가	-17139
▁방어를	-17140
ah	-17141
매치	-17142
자동	-17143
▁고딕	-17144
▁고이	-17145
▁고인	-17146
▁리뷰	-17147
▁명인	-17148
▁삼중	-17149
▁샌드	-17150
▁중등	-17151
▁충렬	-17152
만원을	-17153
시간은	-17154
▁극도로	-17155
▁라파엘	-17156
▁마음의	-17157
▁사이토	-17158
▁왕에게	-17159
▁천천히	-17160
▁취임한	-17161
네티	-17162
면적	-17163
삼진	-17164
인터	-17165
프턴	-17166
▁물체	-17167
▁불필	-17168
▁사탕	-17169
▁소의	-17170
▁아레	-17171
▁알폰	-17172
▁임의	-17173
▁편이	-17174
버스가	-17175
상태가	-17176
▁규모를	-17177
▁기관차	-17178
▁나누는	-17179
▁노선에	-17180
▁세포의	-17181
▁입자의	-17182
▁본관으로	-17183
▁옮겨졌다	-17184
물리	-17185
▁대출	-17186
▁말도	-17187
▁정동	-17188
▁포터	-17189
기면서	-17190
다니며	-17191
▁msl	-17192
▁수시로	-17193
▁없으면	-17194
▁있듯이	-17195
▁전원이	-17196
▁사용하던	-17197
▁스스로의	-17198
▁장악하고	-17199
▁몹	-17200
서스	-17201
표로	-17202
▁신봉	-17203
▁종신	-17204
▁종업	-17205
▁코호	-17206
▁가르쳐	-17207
▁구조에	-17208
▁문자로	-17209
▁서초구	-17210
▁아리아	-17211
▁원자핵	-17212
▁핵융합	-17213
▁덧붙였다	-17214
▁데스크톱	-17215
▁민사소송	-17216
▁에너지는	-17217
▁대한제국의	-17218
▁중심지이다	-17219
▁프랑스군은	-17220
박이	-17221
손의	-17222
암이	-17223
행과	-17224
▁거세	-17225
▁나빠	-17226
▁묻혀	-17227
▁미키	-17228
▁불분	-17229
▁신을	-17230
▁조계	-17231
▁급격한	-17232
▁대사를	-17233
▁소피아	-17234
▁아무리	-17235
▁이름도	-17236
▁태국의	-17237
▁1888	-17238
▁목소리가	-17239
▁전달하는	-17240
▁전성기를	-17241
▁컨테이너	-17242
놀이	-17243
로폰	-17244
▁김광	-17245
▁물과	-17246
▁법이	-17247
▁은신	-17248
▁조에	-17249
▁환자	-17250
▁보통의	-17251
▁북동쪽	-17252
▁사람에	-17253
▁사후에	-17254
▁예선을	-17255
▁일반적	-17256
▁조화를	-17257
▁피해자	-17258
▁행동이	-17259
▁추정하고	-17260
▁활용하여	-17261
▁원칙적으로	-17262
ql	-17263
마사	-17264
몰로	-17265
유예	-17266
있지	-17267
재와	-17268
하길	-17269
str	-17270
▁김민	-17271
▁돋보	-17272
▁우두	-17273
▁주주	-17274
▁해독	-17275
▁고유한	-17276
▁우루과	-17277
▁조약의	-17278
▁통일을	-17279
▁말하자면	-17280
▁일대에서	-17281
▁최고인민회의	-17282
su	-17283
노르	-17284
때는	-17285
▁bc	-17286
▁간첩	-17287
▁대왕	-17288
▁때와	-17289
▁루시	-17290
▁박종	-17291
▁싶다	-17292
▁연한	-17293
▁와인	-17294
▁장안	-17295
▁틈을	-17296
세이다	-17297
▁raw	-17298
▁내린다	-17299
▁접근을	-17300
▁1830	-17301
▁가르치는	-17302
▁돌아가는	-17303
▁동안에는	-17304
▁생물학적	-17305
▁순서대로	-17306
▁진출한다	-17307
▁달성하였다	-17308
전대	-17309
▁교정	-17310
▁나뭇	-17311
▁메카	-17312
▁번도	-17313
▁비는	-17314
▁비싼	-17315
▁아프	-17316
▁지자	-17317
▁추서	-17318
▁테일	-17319
시키려	-17320
▁경계에	-17321
▁법원은	-17322
▁사상이	-17323
▁정당이	-17324
일부터는	-17325
▁거주한다	-17326
▁국가보안	-17327
▁설정되어	-17328
▁공개적으로	-17329
▁프리미어리그의	-17330
링겐	-17331
상대	-17332
▁김지	-17333
▁만날	-17334
▁매력	-17335
▁새긴	-17336
▁오기	-17337
▁인력	-17338
▁초콜	-17339
▁추존	-17340
부리그	-17341
▁nat	-17342
▁경우와	-17343
▁대전차	-17344
▁미군정	-17345
▁성매매	-17346
시키면서	-17347
▁제작하였다	-17348
▁증가하였다	-17349
▁널	-17350
▁팰	-17351
책이	-17352
현대	-17353
▁각국	-17354
▁군벌	-17355
▁너머	-17356
▁도둑	-17357
▁마린	-17358
▁보자	-17359
▁성행	-17360
▁헌액	-17361
▁것들을	-17362
▁그만큼	-17363
▁삼각형	-17364
▁서로를	-17365
▁아들의	-17366
▁앨리스	-17367
▁어워드	-17368
▁집단의	-17369
▁노르망디	-17370
▁모습이다	-17371
▁살펴보면	-17372
▁스칸디나비아	-17373
발생	-17374
수단	-17375
크레	-17376
▁노면	-17377
▁노인	-17378
▁완결	-17379
▁을사	-17380
▁일각	-17381
▁일리	-17382
▁달했다	-17383
▁멜버른	-17384
▁번째는	-17385
▁손상을	-17386
▁원소를	-17387
▁자격이	-17388
▁국민들의	-17389
▁여름에는	-17390
▁프로그램에서	-17391
~1	-17392
유도	-17393
▁대덕	-17394
▁베풀	-17395
▁병자	-17396
▁사인	-17397
▁이씨	-17398
▁이항	-17399
▁집착	-17400
탈리아	-17401
▁겨울에	-17402
▁발전소	-17403
▁사회가	-17404
▁재료로	-17405
▁펼쳐져	-17406
▁헌법의	-17407
▁도입했다	-17408
▁수수께끼	-17409
▁언어이다	-17410
▁받아들이지	-17411
슬리	-17412
▁날로	-17413
▁로페	-17414
▁말고	-17415
▁모금	-17416
▁소외	-17417
▁안고	-17418
▁유태	-17419
▁인원	-17420
▁칸의	-17421
누스의	-17422
루스의	-17423
▁거뒀다	-17424
▁것인가	-17425
▁교황은	-17426
▁단체를	-17427
▁마이애	-17428
▁스크립	-17429
▁자유당	-17430
▁책임이	-17431
▁출연해	-17432
▁자치체로	-17433
▁합류했다	-17434
▁북극점에서	-17435
보장	-17436
쉬는	-17437
쓰고	-17438
임에	-17439
▁막고	-17440
▁입국	-17441
▁전대	-17442
▁칼을	-17443
▁타락	-17444
▁판의	-17445
▁평탄	-17446
▁무사히	-17447
▁본인은	-17448
▁상업적	-17449
▁선으로	-17450
▁작가가	-17451
▁국회에서	-17452
▁선언하고	-17453
▁지점에서	-17454
da	-17455
경비	-17456
번대	-17457
세키	-17458
패의	-17459
하곤	-17460
▁보며	-17461
▁산호	-17462
▁신해	-17463
▁천왕	-17464
년마다	-17465
르면서	-17466
▁높았다	-17467
▁말에서	-17468
▁이것에	-17469
▁정해져	-17470
▁피렌체	-17471
▁해병대	-17472
했음에도	-17473
▁못하도록	-17474
▁스테이션	-17475
▁일찍부터	-17476
▁자유민주	-17477
▁죽음으로	-17478
▁카탈루냐	-17479
di	-17480
남은	-17481
▁그릴	-17482
▁쌍대	-17483
▁준수	-17484
▁카사	-17485
▁펼친	-17486
▁gnu	-17487
▁의석을	-17488
▁인정을	-17489
▁혼자서	-17490
▁대중교통	-17491
▁사용자는	-17492
▁스페이스	-17493
▁유래한다	-17494
▁네트워크를	-17495
늦게	-17496
리면	-17497
백화	-17498
▁상에	-17499
▁절단	-17500
▁지미	-17501
▁하니	-17502
시설을	-17503
하겠다	-17504
▁군대와	-17505
▁병사를	-17506
▁사거리	-17507
▁사헌부	-17508
▁채널을	-17509
▁기념하는	-17510
▁트레이닝	-17511
▁inter	-17512
▁과학자들은	-17513
▁확정되었다	-17514
▁웬	-17515
버의	-17516
봉의	-17517
▁구이	-17518
▁리조	-17519
▁명종	-17520
▁불변	-17521
▁송진	-17522
▁식을	-17523
▁자립	-17524
▁적분	-17525
▁하르	-17526
민들이	-17527
▁128	-17528
▁공장을	-17529
▁바람이	-17530
▁사랑과	-17531
▁와일드	-17532
▁적외선	-17533
▁펠리페	-17534
▁행동은	-17535
되었음을	-17536
▁삼성전자	-17537
▁꿰	-17538
링턴	-17539
와도	-17540
해질	-17541
▁마가	-17542
▁보석	-17543
▁족의	-17544
▁한창	-17545
▁행진	-17546
간으로	-17547
▁국내의	-17548
▁논의가	-17549
▁당선된	-17550
▁철도는	-17551
▁등에서는	-17552
여자대학교	-17553
▁인정받았다	-17554
▁임명되었으며	-17555
▁꽂	-17556
동원	-17557
로프	-17558
좌의	-17559
척이	-17560
▁갈래	-17561
▁급증	-17562
▁김인	-17563
▁글자를	-17564
▁성립된	-17565
▁세상의	-17566
▁알제리	-17567
▁이론적	-17568
▁패하고	-17569
▁명령했다	-17570
▁지도자로	-17571
▁창설되었다	-17572
▁늪	-17573
지오	-17574
▁드라	-17575
▁반입	-17576
▁어우	-17577
▁정자	-17578
▁취한	-17579
기술을	-17580
▁기지를	-17581
▁시기가	-17582
▁시행된	-17583
▁에이전	-17584
▁유형의	-17585
▁정도는	-17586
곡과	-17587
녀가	-17588
변호	-17589
포타	-17590
▁굴복	-17591
▁당황	-17592
▁박람	-17593
▁세분	-17594
▁위그	-17595
달라는	-17596
포켓몬	-17597
▁40%	-17598
▁버린다	-17599
▁생산이	-17600
▁성명을	-17601
▁여학생	-17602
▁휴대전	-17603
▁캄파니아	-17604
든가	-17605
또한	-17606
호르	-17607
▁광물	-17608
▁기니	-17609
▁상소	-17610
▁읽을	-17611
▁주먹	-17612
▁찾고	-17613
▁평야	-17614
▁휩싸	-17615
시켜서	-17616
▁끝난다	-17617
▁난카이	-17618
▁루돌프	-17619
▁북서부	-17620
▁안전을	-17621
▁초부터	-17622
55	-17623
네르	-17624
농업	-17625
누마	-17626
브스	-17627
.9%	-17628
▁bs	-17629
▁남인	-17630
▁낮고	-17631
▁대에	-17632
▁맥아	-17633
▁부러	-17634
▁주세	-17635
▁최장	-17636
▁치뤄	-17637
▁240	-17638
▁기초한	-17639
▁기타를	-17640
▁배터리	-17641
▁1850	-17642
▁바르셀로	-17643
▁성장했다	-17644
▁종목에서	-17645
▁유지하였다	-17646
7,	-17647
달의	-17648
라로	-17649
륜구	-17650
폐합	-17651
훈의	-17652
▁거꾸	-17653
▁도루	-17654
▁위함	-17655
▁징수	-17656
▁파벌	-17657
타나베	-17658
▁독립한	-17659
▁지나면	-17660
▁지붕은	-17661
▁임명했다	-17662
""	-17663
개소	-17664
▁가던	-17665
▁도출	-17666
▁미소	-17667
▁설문	-17668
▁송도	-17669
▁인형	-17670
▁최남	-17671
▁한가	-17672
슬레틱	-17673
운동은	-17674
▁강에서	-17675
▁눈물을	-17676
▁면적이	-17677
▁세월호	-17678
▁소속사	-17679
▁예술의	-17680
▁요제프	-17681
▁우간다	-17682
▁케이프	-17683
▁하므로	-17684
▁형제는	-17685
▁구역으로	-17686
례가	-17687
철학	-17688
▁계의	-17689
▁맹활	-17690
▁비늘	-17691
▁시국	-17692
▁혼혈	-17693
당하자	-17694
디자인	-17695
반으로	-17696
정부를	-17697
▁1.2	-17698
▁떠난다	-17699
▁암컷은	-17700
▁의원의	-17701
▁종류에	-17702
▁soul	-17703
▁생각하여	-17704
▁조직하여	-17705
결한	-17706
균은	-17707
다양	-17708
조치	-17709
투로	-17710
트레	-17711
▁번갈	-17712
▁섞여	-17713
▁퍼즐	-17714
텔레콤	-17715
현에서	-17716
▁감독에	-17717
▁라치오	-17718
▁릴레이	-17719
▁무엇이	-17720
▁아레나	-17721
▁정리를	-17722
▁학문적	-17723
른베르크	-17724
▁1200	-17725
▁개최되는	-17726
▁겨울에는	-17727
▁국민투표	-17728
▁폐지하고	-17729
▁북동쪽으로	-17730
▁캐나다에서	-17731
▁핼	-17732
설과	-17733
▁순차	-17734
▁승하	-17735
▁주권	-17736
도서관	-17737
유가행	-17738
▁거두고	-17739
▁기술로	-17740
▁당하는	-17741
▁면적의	-17742
▁몸무게	-17743
▁분쟁을	-17744
▁여기는	-17745
▁정보의	-17746
▁주지사	-17747
▁타인의	-17748
▁사회민주	-17749
▁증명하였다	-17750
ational	-17751
스콘	-17752
율로	-17753
코로	-17754
▁달에	-17755
▁뒤의	-17756
▁바와	-17757
▁스킴	-17758
▁울릉	-17759
▁not	-17760
▁usb	-17761
▁나오게	-17762
▁사신을	-17763
▁소설의	-17764
▁이해를	-17765
▁장면은	-17766
▁하나씩	-17767
화하였다	-17768
▁식민지를	-17769
▁이들에게	-17770
바와	-17771
아에	-17772
▁el	-17773
▁거창	-17774
▁바우	-17775
▁세리	-17776
▁옥타	-17777
▁코카	-17778
land	-17779
▁0.5	-17780
▁거두어	-17781
▁모르고	-17782
▁보이기	-17783
▁수요가	-17784
▁에어로	-17785
▁철학의	-17786
▁파나마	-17787
▁1865	-17788
▁가운데에	-17789
▁내놓았다	-17790
▁반대하여	-17791
▁투표에서	-17792
▁킴	-17793
▁홉	-17794
공립	-17795
궁은	-17796
직이	-17797
텐셜	-17798
▁거칠	-17799
▁경시	-17800
▁과시	-17801
▁농경	-17802
▁돼지	-17803
▁부회	-17804
▁콘테	-17805
▁그룹에	-17806
▁남편이	-17807
▁버스를	-17808
▁보기도	-17809
▁사명을	-17810
▁설계를	-17811
▁없음을	-17812
▁엘리트	-17813
▁정의에	-17814
▁함대는	-17815
▁활동과	-17816
▁시즌이다	-17817
▁합류하여	-17818
로워	-17819
명도	-17820
브와	-17821
ike	-17822
▁굴절	-17823
▁꽃잎	-17824
▁뚫고	-17825
▁맹세	-17826
▁바오	-17827
▁배척	-17828
▁세라	-17829
▁장흥	-17830
▁키보	-17831
제도의	-17832
olog	-17833
▁개그맨	-17834
▁구조와	-17835
▁법률을	-17836
▁위치로	-17837
▁인물의	-17838
▁학교가	-17839
▁강력하게	-17840
▁대비하여	-17841
▁북동부에	-17842
▁신한은행	-17843
▁위치하여	-17844
▁집안에서	-17845
▁유식유가행	-17846
▁퐁	-17847
닷컴	-17848
번지	-17849
범은	-17850
컵을	-17851
▁고추	-17852
▁리에	-17853
▁버마	-17854
▁복용	-17855
▁속씨	-17856
▁좀더	-17857
▁한중	-17858
청으로	-17859
▁미야기	-17860
▁샌디에	-17861
▁일원이	-17862
▁컴파일	-17863
▁특성상	-17864
▁행위에	-17865
▁1887	-17866
▁못하였고	-17867
▁미나모토	-17868
▁없었다고	-17869
▁이슬람교	-17870
▁비스마르크	-17871
ka	-17872
회관	-17873
▁cp	-17874
▁공예	-17875
▁쉽지	-17876
▁신은	-17877
▁이메	-17878
▁재팬	-17879
▁테베	-17880
시키면	-17881
▁구단이	-17882
▁두가지	-17883
▁방사선	-17884
▁수단을	-17885
▁파이터	-17886
▁회장은	-17887
▁승리하여	-17888
mw	-17889
백의	-17890
정리	-17891
▁관세	-17892
▁길러	-17893
▁김형	-17894
▁노후	-17895
▁막스	-17896
▁이례	-17897
▁파면	-17898
지로서	-17899
▁길이를	-17900
▁담당한	-17901
▁부다페	-17902
▁선거구	-17903
▁찬사를	-17904
▁달라진다	-17905
▁도입하여	-17906
바를	-17907
인사	-17908
인칭	-17909
태가	-17910
해줄	-17911
▁강간	-17912
▁나지	-17913
▁미셸	-17914
▁일차	-17915
▁조의	-17916
▁추축	-17917
▁캄페	-17918
▁고종의	-17919
▁기반이	-17920
▁뜻하며	-17921
▁몇몇의	-17922
▁불확실	-17923
▁여자가	-17924
▁피라미	-17925
▁가능성도	-17926
▁아드리아	-17927
▁취득하였다	-17928
▁괌	-17929
문인	-17930
서원	-17931
▁근래	-17932
▁스텝	-17933
▁원천	-17934
▁은혜	-17935
▁저수	-17936
▁쿠르	-17937
▁탄자	-17938
서에는	-17939
▁0.0	-17940
▁목록을	-17941
▁반응은	-17942
▁연대를	-17943
▁의회를	-17944
▁코드는	-17945
▁지역에서만	-17946
신앙	-17947
월은	-17948
이한	-17949
치면	-17950
▁났다	-17951
▁불에	-17952
▁애완	-17953
▁염기	-17954
▁참수	-17955
▁허드	-17956
급으로	-17957
기관인	-17958
오스트	-17959
▁노태우	-17960
▁받아서	-17961
▁법률에	-17962
▁분쟁이	-17963
▁세계로	-17964
▁조직된	-17965
▁프리스	-17966
▁행위가	-17967
▁1872	-17968
▁쿄	-17969
소재	-17970
움의	-17971
▁궁전	-17972
▁독서	-17973
▁모차	-17974
▁상록	-17975
▁지날	-17976
▁페로	-17977
▁갈라져	-17978
▁방송은	-17979
▁신학자	-17980
▁이제는	-17981
▁4000	-17982
▁개발했다	-17983
▁공화국을	-17984
▁충청남도의	-17985
▁판매되었다	-17986
·3	-17987
찬은	-17988
▁도읍	-17989
▁성북	-17990
▁오해	-17991
▁타케	-17992
▁호프	-17993
렸다는	-17994
▁롬바르	-17995
▁배우고	-17996
▁앤드루	-17997
▁여론이	-17998
▁접어들	-17999
▁종이다	-18000
▁호르몬	-18001
슈타인의	-18002
▁아프리카계	-18003
변수	-18004
스틱	-18005
열과	-18006
전용	-18007
▁객체	-18008
▁구호	-18009
▁미성	-18010
▁배의	-18011
▁앤더	-18012
▁요절	-18013
▁이닝	-18014
▁전멸	-18015
▁전하	-18016
▁지탱	-18017
▁후진	-18018
주식회	-18019
▁야구장	-18020
▁제안한	-18021
▁지나친	-18022
▁표현의	-18023
▁회사로	-18024
▁존재했다	-18025
▁시작되었으며	-18026
블릿	-18027
사자	-18028
소시	-18029
여를	-18030
원자	-18031
진군	-18032
쾌한	-18033
트르	-18034
플래	-18035
ile	-18036
▁과연	-18037
▁마비	-18038
▁속편	-18039
▁철강	-18040
▁혐오	-18041
▁본질적	-18042
▁사업은	-18043
▁스칼라	-18044
▁이루지	-18045
▁지정한	-18046
▁결승에서	-18047
▁대전에서	-18048
▁등장하여	-18049
▁손해배상	-18050
▁인터뷰를	-18051
▁씻	-18052
디를	-18053
록에	-18054
▁용서	-18055
▁카카	-18056
▁허블	-18057
▁힘의	-18058
대서양	-18059
분까지	-18060
지이며	-18061
▁그것에	-18062
▁박사는	-18063
▁쓰러뜨	-18064
▁와세다	-18065
▁제주시	-18066
▁즐기는	-18067
▁1881	-18068
▁교회에서	-18069
▁일제강점기	-18070
백은	-18071
살을	-18072
적한	-18073
▁로비	-18074
▁색의	-18075
▁아쉬	-18076
▁안창	-18077
▁지출	-18078
▁칸은	-18079
▁코시	-18080
▁포식	-18081
▁핑크	-18082
▁벗어난	-18083
▁사업의	-18084
▁요시다	-18085
▁중이며	-18086
▁통하는	-18087
▁남서부에	-18088
▁주장으로	-18089
주의자들은	-18090
검은	-18091
먼의	-18092
좌에	-18093
증과	-18094
증권	-18095
.19	-18096
▁끝을	-18097
▁서산	-18098
▁허정	-18099
경찰서	-18100
▁역할로	-18101
▁판정을	-18102
▁1869	-18103
▁사라지고	-18104
▁시민들이	-18105
▁유클리드	-18106
▁주변에서	-18107
▁처리하는	-18108
▁합류하였다	-18109
공개	-18110
▁겪게	-18111
▁계단	-18112
▁극락	-18113
▁도스	-18114
▁마셜	-18115
▁사림	-18116
▁잡을	-18117
연패를	-18118
▁창설된	-18119
▁현실을	-18120
년까지의	-18121
▁마오쩌둥	-18122
▁유러피언	-18123
▁자이언츠의	-18124
▁포켓몬으로	-18125
공에	-18126
데자	-18127
어스	-18128
▁po	-18129
▁스텔	-18130
▁이모	-18131
▁전이	-18132
▁사태를	-18133
▁쓰이지	-18134
▁않았을	-18135
▁주니치	-18136
▁1867	-18137
▁만들어낸	-18138
▁셰익스피	-18139
▁와카야마	-18140
격투	-18141
공단	-18142
공주	-18143
움이	-18144
▁tw	-18145
▁두지	-18146
▁미에	-18147
▁유망	-18148
▁차고	-18149
▁채굴	-18150
▁키릴	-18151
▁해남	-18152
▁des	-18153
▁거꾸로	-18154
▁요소로	-18155
▁자리는	-18156
▁하려고	-18157
▁학생을	-18158
▁남베트남	-18159
▁대량으로	-18160
▁라틴어로	-18161
▁이야기의	-18162
▁공격하였다	-18163
기만	-18164
탑은	-18165
ech	-18166
les	-18167
▁김준	-18168
▁마땅	-18169
▁총무	-18170
▁포럼	-18171
▁혼다	-18172
▁108	-18173
▁신시내	-18174
▁아내가	-18175
▁자체에	-18176
▁전국에	-18177
▁참가해	-18178
▁형제가	-18179
▁회원이	-18180
▁힘썼다	-18181
▁1873	-18182
▁공간이다	-18183
▁아시아의	-18184
복음	-18185
지어	-18186
▁가옥	-18187
▁길다	-18188
▁니켈	-18189
▁동요	-18190
▁비옥	-18191
▁사영	-18192
▁아유	-18193
▁우체	-18194
▁조차	-18195
▁파직	-18196
상태에	-18197
▁다이노	-18198
▁대수적	-18199
▁마을로	-18200
▁방향의	-18201
▁비타민	-18202
▁비해서	-18203
▁빠지게	-18204
▁소련군	-18205
▁주변을	-18206
▁1862	-18207
▁현대적인	-18208
골이	-18209
담당	-18210
리사	-18211
미노	-18212
▁격렬	-18213
▁문무	-18214
▁발해	-18215
▁서거	-18216
▁존슨	-18217
▁코린	-18218
데이터	-18219
온에서	-18220
▁기사가	-18221
▁기억을	-18222
▁반도에	-18223
▁우위를	-18224
▁장악한	-18225
▁해준다	-18226
부에서는	-18227
▁이해하는	-18228
▁증가하는	-18229
~7	-18230
달은	-18231
빌리	-18232
와서	-18233
ank	-18234
ern	-18235
▁변동	-18236
▁분수	-18237
▁실리	-18238
▁후작	-18239
림으로	-18240
▁mon	-18241
▁남자의	-18242
▁무너뜨	-18243
▁생명의	-18244
▁증거는	-18245
▁차세대	-18246
▁관계자는	-18247
▁마지막에	-18248
▁일본군이	-18249
막의	-18250
충이	-18251
ins	-18252
▁신진	-18253
▁연말	-18254
▁일요	-18255
▁중위	-18256
운동가	-18257
▁배치된	-18258
▁빅토르	-18259
▁원소가	-18260
▁처리를	-18261
▁행사가	-18262
▁게오르크	-18263
▁아들이자	-18264
▁인도네시아의	-18265
줄기	-18266
▁인적	-18267
▁정형	-18268
▁조봉	-18269
▁천사	-18270
▁국왕이	-18271
▁두꺼운	-18272
▁병력은	-18273
▁영역은	-18274
▁왕조를	-18275
퍼레이션	-18276
▁conc	-18277
▁조사에서	-18278
처분	-18279
천에	-18280
향의	-18281
▁공휴	-18282
▁띄는	-18283
▁배트	-18284
▁오산	-18285
▁진사	-18286
대회에	-18287
▁교향악	-18288
▁기준에	-18289
▁미래에	-18290
▁밝혀져	-18291
▁조사한	-18292
▁직위를	-18293
▁충돌이	-18294
▁엑스박스	-18295
▁연합군이	-18296
▁지방으로	-18297
▁플랫폼을	-18298
▁스크린도어가	-18299
우옌	-18300
움에	-18301
입을	-18302
책은	-18303
▁기해	-18304
▁깃털	-18305
▁아메	-18306
▁함은	-18307
개이다	-18308
사단의	-18309
▁can	-18310
▁그러다	-18311
▁미래를	-18312
▁불가피	-18313
▁사고는	-18314
▁여러번	-18315
▁계속하여	-18316
▁거부하였다	-18317
▁안장되었다	-18318
▁지속되었다	-18319
▁필요하다고	-18320
미나	-18321
자문	-18322
클래	-18323
▁무안	-18324
▁무언	-18325
▁보였고	-18326
▁삼성전	-18327
▁설립을	-18328
▁옆으로	-18329
▁죽임을	-18330
▁통합을	-18331
▁성공한다	-18332
▁이어지고	-18333
▁테스트를	-18334
▁사운드트랙	-18335
▁아이스하키	-18336
▁룸	-18337
돈의	-18338
럴드	-18339
레와	-18340
바위	-18341
아비	-18342
조작	-18343
▁모신	-18344
▁양보	-18345
▁인자	-18346
▁중생	-18347
▁찾지	-18348
▁끝나는	-18349
▁범위는	-18350
▁성질이	-18351
▁실행할	-18352
▁에드워	-18353
▁질량의	-18354
▁open	-18355
▁레스토랑	-18356
▁증가했다	-18357
▁현재까지도	-18358
▁댈	-18359
다테	-18360
보존	-18361
어류	-18362
와라	-18363
희와	-18364
▁교장	-18365
▁미합	-18366
▁박해	-18367
▁숙부	-18368
▁연동	-18369
▁잔존	-18370
▁직사	-18371
▁헌납	-18372
야말로	-18373
층에는	-18374
▁기원후	-18375
▁내세워	-18376
▁등급은	-18377
▁명단의	-18378
▁케이스	-18379
▁개시했다	-18380
▁고향으로	-18381
▁발발하자	-18382
▁시도했다	-18383
▁프로야구	-18384
▁설계되었다	-18385
▁시리즈이다	-18386
▁요청하였다	-18387
렉션	-18388
렌은	-18389
배는	-18390
▁감찰	-18391
▁감추	-18392
▁구경	-18393
▁실은	-18394
▁이단	-18395
▁종묘	-18396
▁치즈	-18397
▁팔꿈	-18398
부분이	-18399
시간을	-18400
학교로	-18401
▁당국은	-18402
▁머물러	-18403
▁방대한	-18404
▁전차를	-18405
▁처벌을	-18406
▁측면을	-18407
▁포유류	-18408
▁아오모리	-18409
▁캐릭터로	-18410
▁인터페이스를	-18411
▁뱃	-18412
천년	-18413
혁은	-18414
▁네모	-18415
▁막대	-18416
▁모욕	-18417
▁스이	-18418
▁홍수	-18419
하지도	-18420
▁개인용	-18421
▁도야마	-18422
▁수차례	-18423
▁싱글은	-18424
▁종목은	-18425
▁동원하여	-18426
▁않으므로	-18427
▁진행한다	-18428
▁후지와라	-18429
온과	-18430
톤은	-18431
ert	-18432
▁내포	-18433
▁대주	-18434
▁섞어	-18435
▁소용	-18436
니아는	-18437
▁가공의	-18438
▁광대한	-18439
▁구멍을	-18440
▁기초가	-18441
▁삼국유	-18442
▁아닌가	-18443
▁자유와	-18444
▁이외에는	-18445
▁이적하여	-18446
▁일러스트	-18447
▁추정되며	-18448
바람	-18449
상황	-18450
▁곱셈	-18451
▁기압	-18452
▁맞춤	-18453
▁신기	-18454
▁리그는	-18455
▁물체가	-18456
▁영원한	-18457
▁이사회	-18458
▁전자는	-18459
▁시민들의	-18460
▁종교적인	-18461
▁만들었으며	-18462
▁학생들에게	-18463
라나	-18464
제인	-18465
큐슈	-18466
하되	-18467
▁골짜	-18468
▁반역	-18469
▁비준	-18470
▁후예	-18471
▁강력히	-18472
▁라오스	-18473
▁많지만	-18474
▁불교를	-18475
▁설명을	-18476
▁실권을	-18477
▁의사가	-18478
▁정권에	-18479
▁합의를	-18480
▁결혼식을	-18481
▁라이선스	-18482
▁자택에서	-18483
▁판매량을	-18484
덕은	-18485
라니	-18486
몽골	-18487
시경	-18488
천면	-18489
키나	-18490
▁공로	-18491
▁나우	-18492
▁설비	-18493
▁에른	-18494
▁징계	-18495
었다는	-18496
▁그렇기	-18497
▁모델의	-18498
▁스리랑	-18499
▁엔진의	-18500
▁best	-18501
▁대중적인	-18502
▁의원으로	-18503
▁발탁되었다	-18504
광의	-18505
율과	-18506
전국	-18507
청사	-18508
▁감상	-18509
▁결선	-18510
▁극한	-18511
▁답변	-18512
▁타지	-18513
▁1~2	-18514
▁경성부	-18515
▁만화를	-18516
▁이뤄진	-18517
▁적용된	-18518
▁정신과	-18519
▁초콜릿	-18520
▁코트디	-18521
▁혜택을	-18522
▁개편되었다	-18523
들고	-18524
유적	-18525
▁세트	-18526
▁아다	-18527
▁초회	-18528
단체인	-18529
▁다리는	-18530
▁미카엘	-18531
▁의식이	-18532
▁이주한	-18533
데자네이	-18534
▁나카무라	-18535
▁자리매김	-18536
▁자신만의	-18537
▁토스카나	-18538
▁아이디어를	-18539
▁맴	-18540
디와	-18541
티드	-18542
▁가토	-18543
▁기법	-18544
▁랭크	-18545
▁레버	-18546
▁상기	-18547
▁열두	-18548
▁우지	-18549
▁조항	-18550
▁능력은	-18551
▁독일을	-18552
▁뒤에서	-18553
▁레전드	-18554
▁야구를	-18555
▁이적한	-18556
▁재료를	-18557
▁저지대	-18558
▁크기와	-18559
▁팬들이	-18560
▁해석을	-18561
▁히브리	-18562
▁대학으로	-18563
▁미쓰비시	-18564
▁어려서부터	-18565
▁작곡가이다	-18566
네오	-18567
키에	-18568
폭탄	-18569
▁글루	-18570
▁안녕	-18571
▁애기	-18572
▁월트	-18573
▁조심	-18574
▁죽는	-18575
▁기관을	-18576
▁기원을	-18577
▁대량의	-18578
▁세례를	-18579
▁역할이	-18580
▁조선후	-18581
▁주의를	-18582
▁개발하여	-18583
▁거절했다	-18584
▁부진으로	-18585
▁소말리아	-18586
▁지배하에	-18587
▁확실하지	-18588
▁회사에서	-18589
▁실시하였다	-18590
▁au	-18591
▁소문	-18592
▁슈타	-18593
▁음모	-18594
▁저자	-18595
▁전위	-18596
▁즐거	-18597
▁학과	-18598
집에서	-18599
▁구분할	-18600
▁그러면	-18601
▁비정상	-18602
▁신청을	-18603
▁아이의	-18604
▁영국인	-18605
▁운동과	-18606
▁퍼스트	-18607
▁그것이다	-18608
▁신분으로	-18609
▁음반으로	-18610
▁아테네에서	-18611
▁예정이었다	-18612
▁피아니스트	-18613
fs	-18614
go	-18615
라토	-18616
먼이	-18617
타수	-18618
▁cc	-18619
▁다행	-18620
▁매직	-18621
▁예일	-18622
▁우치	-18623
▁유길	-18624
▁임계	-18625
▁자처	-18626
▁침체	-18627
▁"20	-18628
▁따르지	-18629
▁방영한	-18630
▁요인이	-18631
▁조건에	-18632
▁텔레비	-18633
▁투자를	-18634
▁파란색	-18635
▁폭넓은	-18636
▁도미니카	-18637
▁방송에서	-18638
▁않았는데	-18639
▁출마하여	-18640
▁컴퓨터에	-18641
▁러시아에서	-18642
군주	-18643
림에	-18644
타도	-18645
파리	-18646
▁명사	-18647
▁스퀘	-18648
▁실증	-18649
▁직계	-18650
▁플리	-18651
마리의	-18652
~200	-18653
▁국정원	-18654
▁권유로	-18655
▁남자는	-18656
▁맡는다	-18657
▁연대는	-18658
▁줄이기	-18659
▁취하는	-18660
▁효력을	-18661
▁계속했다	-18662
▁명성황후	-18663
▁이용하면	-18664
▁평가받고	-18665
my	-18666
락에	-18667
사항	-18668
▁경무	-18669
▁깊게	-18670
▁어리	-18671
▁직행	-18672
▁튼튼	-18673
정보를	-18674
▁물질은	-18675
▁새정치	-18676
▁속하게	-18677
▁오늘에	-18678
▁이상은	-18679
▁팬들은	-18680
▁해군이	-18681
▁발전했다	-18682
▁주연으로	-18683
▁대승불교의	-18684
▁지명되었다	-18685
▁출간되었다	-18686
대수	-18687
▁건널	-18688
▁건륭	-18689
▁계엄	-18690
▁관음	-18691
▁궁중	-18692
▁배터	-18693
▁성도	-18694
▁안드	-18695
▁워드	-18696
▁있은	-18697
▁자위	-18698
▁제동	-18699
▁지분	-18700
▁카바	-18701
▁현이	-18702
▁나타났	-18703
▁도시와	-18704
▁뒤늦게	-18705
▁은메달	-18706
▁이보다	-18707
▁테네시	-18708
▁특성이	-18709
▁편찬한	-18710
잉글랜드	-18711
▁관장하는	-18712
▁등장하며	-18713
▁애슬레틱	-18714
▁뉘른베르크	-18715
선생	-18716
수교	-18717
술이	-18718
시카	-18719
▁말리	-18720
▁버린	-18721
▁수중	-18722
▁쓰게	-18723
▁아치	-18724
▁요괴	-18725
▁죽여	-18726
▁줄곧	-18727
▁카테	-18728
▁편을	-18729
마스터	-18730
부대를	-18731
▁708	-18732
▁다마스	-18733
▁로마를	-18734
▁유니콘	-18735
▁죽이는	-18736
적이라는	-18737
▁메소포타	-18738
▁피츠버그	-18739
▁참석하였다	-18740
들리	-18741
▁pl	-18742
▁상서	-18743
▁서위	-18744
▁아약	-18745
▁정제	-18746
▁진흙	-18747
▁포츠	-18748
[...]
